{
  "version": "1.0",
  "truncation": null,
  "padding": null,
  "added_tokens": [
    {
      "id": 0,
      "content": "<|endoftext|>",
      "single_word": false,
      "lstrip": false,
      "rstrip": false,
      "normalized": false,
      "special": true
    },
    {
      "id": 1,
      "content": "<|unk|>",
      "single_word": false,
      "lstrip": false,
      "rstrip": false,
      "normalized": false,
      "special": true
    },
    {
      "id": 2,
      "content": "<|pad|>",
      "single_word": false,
      "lstrip": false,
      "rstrip": false,
      "normalized": false,
      "special": true
    },
    {
      "id": 3,
      "content": "<|tool_call|>",
      "single_word": false,
      "lstrip": false,
      "rstrip": false,
      "normalized": false,
      "special": true
    },
    {
      "id": 4,
      "content": "<|monologue|>",
      "single_word": false,
      "lstrip": false,
      "rstrip": false,
      "normalized": false,
      "special": true
    }
  ],
  "normalizer": null,
  "pre_tokenizer": {
    "type": "ByteLevel",
    "add_prefix_space": false,
    "trim_offsets": true,
    "use_regex": true
  },
  "post_processor": {
    "type": "ByteLevel",
    "add_prefix_space": true,
    "trim_offsets": false,
    "use_regex": true
  },
  "decoder": null,
  "model": {
    "type": "BPE",
    "dropout": null,
    "unk_token": null,
    "continuing_subword_prefix": null,
    "end_of_word_suffix": null,
    "fuse_unk": false,
    "byte_fallback": false,
    "ignore_merges": false,
    "vocab": {
      "<|endoftext|>": 0,
      "<|unk|>": 1,
      "<|pad|>": 2,
      "<|tool_call|>": 3,
      "<|monologue|>": 4,
      "!": 5,
      "\"": 6,
      "#": 7,
      "$": 8,
      "%": 9,
      "&": 10,
      "'": 11,
      "(": 12,
      ")": 13,
      "*": 14,
      "+": 15,
      ",": 16,
      "-": 17,
      ".": 18,
      "/": 19,
      "0": 20,
      "1": 21,
      "2": 22,
      "3": 23,
      "4": 24,
      "5": 25,
      "6": 26,
      "7": 27,
      "8": 28,
      "9": 29,
      ":": 30,
      ";": 31,
      "<": 32,
      "=": 33,
      ">": 34,
      "?": 35,
      "@": 36,
      "A": 37,
      "B": 38,
      "C": 39,
      "D": 40,
      "E": 41,
      "F": 42,
      "G": 43,
      "H": 44,
      "I": 45,
      "J": 46,
      "K": 47,
      "L": 48,
      "M": 49,
      "N": 50,
      "O": 51,
      "P": 52,
      "Q": 53,
      "R": 54,
      "S": 55,
      "T": 56,
      "U": 57,
      "V": 58,
      "W": 59,
      "X": 60,
      "Y": 61,
      "Z": 62,
      "[": 63,
      "\\": 64,
      "]": 65,
      "^": 66,
      "_": 67,
      "`": 68,
      "a": 69,
      "b": 70,
      "c": 71,
      "d": 72,
      "e": 73,
      "f": 74,
      "g": 75,
      "h": 76,
      "i": 77,
      "j": 78,
      "k": 79,
      "l": 80,
      "m": 81,
      "n": 82,
      "o": 83,
      "p": 84,
      "q": 85,
      "r": 86,
      "s": 87,
      "t": 88,
      "u": 89,
      "v": 90,
      "w": 91,
      "x": 92,
      "y": 93,
      "z": 94,
      "{": 95,
      "|": 96,
      "}": 97,
      "~": 98,
      "¡": 99,
      "¢": 100,
      "£": 101,
      "¤": 102,
      "¥": 103,
      "¦": 104,
      "§": 105,
      "¨": 106,
      "©": 107,
      "ª": 108,
      "«": 109,
      "¬": 110,
      "®": 111,
      "¯": 112,
      "°": 113,
      "±": 114,
      "²": 115,
      "³": 116,
      "´": 117,
      "µ": 118,
      "¶": 119,
      "·": 120,
      "¸": 121,
      "¹": 122,
      "º": 123,
      "»": 124,
      "¼": 125,
      "½": 126,
      "¾": 127,
      "¿": 128,
      "Â": 129,
      "Ã": 130,
      "Ä": 131,
      "Å": 132,
      "Æ": 133,
      "Ç": 134,
      "È": 135,
      "É": 136,
      "Ê": 137,
      "Ë": 138,
      "Ì": 139,
      "Í": 140,
      "Î": 141,
      "Ï": 142,
      "Ð": 143,
      "Ñ": 144,
      "Ò": 145,
      "Ó": 146,
      "Ô": 147,
      "Õ": 148,
      "Ö": 149,
      "×": 150,
      "Ø": 151,
      "Ù": 152,
      "Ú": 153,
      "Û": 154,
      "à": 155,
      "á": 156,
      "â": 157,
      "ã": 158,
      "ä": 159,
      "å": 160,
      "æ": 161,
      "ç": 162,
      "è": 163,
      "é": 164,
      "ê": 165,
      "ë": 166,
      "ì": 167,
      "í": 168,
      "î": 169,
      "ï": 170,
      "ð": 171,
      "ā": 172,
      "ă": 173,
      "ć": 174,
      "Ĉ": 175,
      "ĉ": 176,
      "Ċ": 177,
      "Č": 178,
      "č": 179,
      "Đ": 180,
      "đ": 181,
      "Ē": 182,
      "ē": 183,
      "Ę": 184,
      "ę": 185,
      "ě": 186,
      "Ġ": 187,
      "Ģ": 188,
      "ģ": 189,
      "Ĥ": 190,
      "ĥ": 191,
      "Ħ": 192,
      "ħ": 193,
      "Ĩ": 194,
      "ĩ": 195,
      "Ī": 196,
      "ī": 197,
      "Ĭ": 198,
      "ĭ": 199,
      "Į": 200,
      "į": 201,
      "İ": 202,
      "ı": 203,
      "Ĳ": 204,
      "ĳ": 205,
      "Ĵ": 206,
      "ĵ": 207,
      "Ķ": 208,
      "ķ": 209,
      "ĸ": 210,
      "Ĺ": 211,
      "ĺ": 212,
      "Ļ": 213,
      "ļ": 214,
      "Ľ": 215,
      "ľ": 216,
      "Ŀ": 217,
      "ŀ": 218,
      "Ł": 219,
      "ł": 220,
      "Ń": 221,
      "ĠĠ": 222,
      "Ġt": 223,
      "Ġa": 224,
      "in": 225,
      "he": 226,
      "čĊ": 227,
      "ĠĠĠĠ": 228,
      "re": 229,
      "on": 230,
      "at": 231,
      "er": 232,
      "Ġthe": 233,
      "Ġs": 234,
      "en": 235,
      "Ġo": 236,
      "Ġc": 237,
      "or": 238,
      "is": 239,
      "Ġw": 240,
      "it": 241,
      "al": 242,
      "es": 243,
      "ed": 244,
      "Ġp": 245,
      "nd": 246,
      "Ġf": 247,
      "--": 248,
      "Ġb": 249,
      "ĠĠĠĠĠĠĠĠ": 250,
      "Ġin": 251,
      "ion": 252,
      "Ġof": 253,
      "an": 254,
      "ing": 255,
      "ar": 256,
      "Ġd": 257,
      "ic": 258,
      "Ġm": 259,
      "ro": 260,
      "le": 261,
      "Ġand": 262,
      "Ġto": 263,
      "as": 264,
      "ou": 265,
      "ct": 266,
      "ent": 267,
      "Ġth": 268,
      "et": 269,
      "Ġre": 270,
      "Ġh": 271,
      "el": 272,
      "st": 273,
      "Ġn": 274,
      "om": 275,
      "Ġe": 276,
      "----": 277,
      "il": 278,
      "Ġl": 279,
      "Ġ(": 280,
      "id": 281,
      "im": 282,
      "ig": 283,
      "ot": 284,
      "Ġis": 285,
      "ve": 286,
      "ĠT": 287,
      "ation": 288,
      "ol": 289,
      "am": 290,
      "ut": 291,
      "Ġg": 292,
      "us": 293,
      "ĠĠĠ": 294,
      "ce": 295,
      "Ġfor": 296,
      "ĠI": 297,
      "ly": 298,
      "ur": 299,
      "ĠĠĠĠĠĠĠĠĠĠĠĠĠĠĠĠ": 300,
      "ĠS": 301,
      "ra": 302,
      "ow": 303,
      "Ġbe": 304,
      "Ġ1": 305,
      "ĠC": 306,
      "ĠA": 307,
      "ch": 308,
      "ul": 309,
      "Ġthat": 310,
      "Ġst": 311,
      "if": 312,
      "ith": 313,
      "Ġon": 314,
      "âĢ": 315,
      "ver": 316,
      "se": 317,
      "00": 318,
      "Ġcon": 319,
      "Ġ$": 320,
      "ad": 321,
      "Ġwith": 322,
      "Ġan": 323,
      "Ġas": 324,
      "od": 325,
      "Ġpro": 326,
      "ay": 327,
      "un": 328,
      "ir": 329,
      "ter": 330,
      "ate": 331,
      "um": 332,
      "==": 333,
      "pe": 334,
      "ab": 335,
      "Ġ\\": 336,
      "Ġv": 337,
      "ag": 338,
      "Ġ2": 339,
      "--------": 340,
      "ri": 341,
      "ĠM": 342,
      "em": 343,
      "her": 344,
      "ere": 345,
      "Ġy": 346,
      "Ġal": 347,
      "qu": 348,
      "res": 349,
      "ĠP": 350,
      "pp": 351,
      "os": 352,
      "Ġit": 353,
      "Ġex": 354,
      "ĠThe": 355,
      "ist": 356,
      "Ġde": 357,
      "ac": 358,
      "Ġ=": 359,
      "Ġwh": 360,
      "Ġ-": 361,
      "est": 362,
      "ant": 363,
      "Ġwas": 364,
      "Ġor": 365,
      "Ġcom": 366,
      "iv": 367,
      "ĠB": 368,
      "Ġsu": 369,
      "ment": 370,
      "Ġby": 371,
      "ction": 372,
      "oc": 373,
      "th": 374,
      "ĠF": 375,
      "ĠD": 376,
      "ity": 377,
      "ht": 378,
      "Ġare": 379,
      "Ġat": 380,
      "ess": 381,
      "**": 382,
      "op": 383,
      "rom": 384,
      "ain": 385,
      "ers": 386,
      "ĠH": 387,
      "Ġse": 388,
      "Ġhe": 389,
      "ore": 390,
      "Ġyou": 391,
      "ĠR": 392,
      "ive": 393,
      "pt": 394,
      "ĠW": 395,
      "ĠL": 396,
      "end": 397,
      "Ġha": 398,
      "Ġ0": 399,
      "nt": 400,
      "{\\": 401,
      "ud": 402,
      "ort": 403,
      "ill": 404,
      "ld": 405,
      "Ġnot": 406,
      "ure": 407,
      "ĠN": 408,
      "ĠĠĠĠĠĠĠ": 409,
      "Ġus": 410,
      "Ġr": 411,
      "pl": 412,
      "Ġfrom": 413,
      "Ġne": 414,
      "ated": 415,
      "ke": 416,
      "ell": 417,
      "Ġ*": 418,
      "art": 419,
      "Ġ\"": 420,
      "Ġthis": 421,
      "ial": 422,
      "ect": 423,
      "ies": 424,
      "up": 425,
      "ight": 426,
      "ĠE": 427,
      "ine": 428,
      "and": 429,
      "Ġwe": 430,
      "Ġsh": 431,
      "ĠG": 432,
      ").": 433,
      "Ġch": 434,
      "og": 435,
      "ff": 436,
      "ical": 437,
      "per": 438,
      "all": 439,
      "ge": 440,
      "Ġ+": 441,
      "ich": 442,
      "Ġ3": 443,
      "our": 444,
      "ĠĠĠĠĠĠĠĠĠĠĠĠĠĠĠĠĠĠĠĠĠĠĠĠĠĠĠĠĠĠĠĠ": 445,
      "Ġhave": 446,
      "ath": 447,
      "iz": 448,
      "ue": 449,
      "====": 450,
      "Ġle": 451,
      "cl": 452,
      "Ġres": 453,
      "ame": 454,
      "ib": 455,
      "Ġ{": 456,
      "te": 457,
      "und": 458,
      "ult": 459,
      "âĢĻ": 460,
      "able": 461,
      "ĠO": 462,
      "age": 463,
      "Ġcan": 464,
      "ph": 465,
      "ould": 466,
      "ase": 467,
      "act": 468,
      "ust": 469,
      "Ġcomp": 470,
      "01": 471,
      "are": 472,
      ");": 473,
      "ie": 474,
      "Ġ[": 475,
      "'s": 476,
      "ard": 477,
      "Ġcl": 478,
      "=\"": 479,
      "orm": 480,
      "ign": 481,
      "Ġcont": 482,
      "Ġwere": 483,
      "..": 484,
      "----------------": 485,
      "Ġwhe": 486,
      "ost": 487,
      "Ġint": 488,
      "ition": 489,
      "du": 490,
      "Ġad": 491,
      "ther": 492,
      "_{": 493,
      "Ġim": 494,
      "ans": 495,
      "ass": 496,
      "ome": 497,
      "ack": 498,
      "ĠU": 499,
      "Ġpl": 500,
      "Ġwhich": 501,
      "Ġab": 502,
      "ub": 503,
      "Ġj": 504,
      "Âł": 505,
      "}}": 506,
      "ens": 507,
      "out": 508,
      "ip": 509,
      "ast": 510,
      "ĠJ": 511,
      "ide": 512,
      "ĠIn": 513,
      "Ġk": 514,
      "ire": 515,
      "Ġ4": 516,
      "cc": 517,
      "The": 518,
      "ap": 519,
      "Ġall": 520,
      "Ġme": 521,
      "ary": 522,
      "int": 523,
      "//": 524,
      "Ġdis": 525,
      "ty": 526,
      "ind": 527,
      "Ġtr": 528,
      "),": 529,
      "ations": 530,
      "one": 531,
      "ous": 532,
      "ress": 533,
      "ence": 534,
      "ory": 535,
      "ep": 536,
      "con": 537,
      "ime": 538,
      "ice": 539,
      "Ġun": 540,
      "ak": 541,
      "Ġdo": 542,
      "ug": 543,
      "ong": 544,
      "ents": 545,
      "Ġ5": 546,
      "ile": 547,
      "Ġhas": 548,
      "Ġ<": 549,
      "ord": 550,
      "ref": 551,
      "Ġ$\\": 552,
      "ber": 553,
      "Ġper": 554,
      "Ġen": 555,
      "ance": 556,
      "Ġbut": 557,
      "ork": 558,
      "Ġapp": 559,
      "ia": 560,
      "ys": 561,
      "ose": 562,
      "ĠTh": 563,
      "so": 564,
      "form": 565,
      "ely": 566,
      "math": 567,
      "iff": 568,
      "ĠĠĠĠĠ": 569,
      "ex": 570,
      "ĠâĢ": 571,
      "av": 572,
      "ang": 573,
      "ru": 574,
      "ace": 575,
      "Ġif": 576,
      "ok": 577,
      "ions": 578,
      "ach": 579,
      "Ġwill": 580,
      "[@": 581,
      "Ġpre": 582,
      "ef": 583,
      "port": 584,
      "ally": 585,
      "ors": 586,
      "Ġqu": 587,
      "ĉĉ": 588,
      "Ġout": 589,
      "}$": 590,
      "Ġone": 591,
      "Ġar": 592,
      "vel": 593,
      "\\]": 594,
      "Ġpart": 595,
      "cre": 596,
      "Ġev": 597,
      "ata": 598,
      "Ġ}": 599,
      "ail": 600,
      "ne": 601,
      "Ġhis": 602,
      "ite": 603,
      "lic": 604,
      "ry": 605,
      "ĠK": 606,
      "Ġso": 607,
      "ft": 608,
      "com": 609,
      "Ġ19": 610,
      "ific": 611,
      "own": 612,
      "ĠĠĠĠĠĠĠĠĠĠĠ": 613,
      "ear": 614,
      "erv": 615,
      "Ġob": 616,
      "Ġother": 617,
      "Ġgo": 618,
      "erm": 619,
      "10": 620,
      "urn": 621,
      "ĠSt": 622,
      "ates": 623,
      "ĠV": 624,
      "Ġmore": 625,
      "ount": 626,
      "Ġro": 627,
      "ound": 628,
      "ree": 629,
      "ll": 630,
      "lect": 631,
      "Ġgen": 632,
      "we": 633,
      "Ġup": 634,
      "^{": 635,
      "19": 636,
      "ma": 637,
      "Ġtheir": 638,
      "ččĊ": 639,
      "low": 640,
      "Ġalso": 641,
      "Ġass": 642,
      "Ġsy": 643,
      "Ġ6": 644,
      "ric": 645,
      "aus": 646,
      "Ġman": 647,
      "ject": 648,
      "eth": 649,
      "Ġbeen": 650,
      "rib": 651,
      "ple": 652,
      "Ġag": 653,
      "Ġ'": 654,
      "Ġind": 655,
      "Ġno": 656,
      "rac": 657,
      "Ġthey": 658,
      "ater": 659,
      "Ġspe": 660,
      "Ġ&": 661,
      "ode": 662,
      "Ġdiff": 663,
      "Ġli": 664,
      "clud": 665,
      "Ġhad": 666,
      "Ġsp": 667,
      "Ġsub": 668,
      "very": 669,
      "ces": 670,
      "Ġinter": 671,
      "ied": 672,
      "ild": 673,
      "Ġthere": 674,
      "Ġbet": 675,
      "wo": 676,
      "Ġyour": 677,
      "Ġund": 678,
      "Ġany": 679,
      "ring": 680,
      "Ġsc": 681,
      "Ġtime": 682,
      "ake": 683,
      "Ġdes": 684,
      "12": 685,
      "ob": 686,
      "Ġgro": 687,
      "Ġwhen": 688,
      "ative": 689,
      "ari": 690,
      "In": 691,
      "vers": 692,
      "Ġits": 693,
      "Ġthan": 694,
      "Ġdef": 695,
      "========": 696,
      "ced": 697,
      "xt": 698,
      "irst": 699,
      "Ġmod": 700,
      "iss": 701,
      "ov": 702,
      "11": 703,
      "Ġval": 704,
      "ular": 705,
      "old": 706,
      "âĢĿ": 707,
      "fter": 708,
      "ĠčĊ": 709,
      "Ġacc": 710,
      "Ġwould": 711,
      "Ġstud": 712,
      "__": 713,
      "Ġam": 714,
      "unction": 715,
      "hat": 716,
      "Ġrel": 717,
      "Ġmay": 718,
      "Ġcons": 719,
      "ove": 720,
      "Ġtrans": 721,
      "ook": 722,
      "ating": 723,
      "Ġ7": 724,
      "Ġover": 725,
      "Ġmy": 726,
      "Ġsome": 727,
      "Ġact": 728,
      "ec": 729,
      "ert": 730,
      "type": 731,
      "](": 732,
      "Ġwork": 733,
      "Ġrec": 734,
      "Ġnew": 735,
      "get": 736,
      "pon": 737,
      "dition": 738,
      "Ġwho": 739,
      "ĠĠĠĠĠĠĠĠĠĠĠĠĠĠĠ": 740,
      "Ġhig": 741,
      "Ġsuch": 742,
      "ased": 743,
      "</": 744,
      "Ġph": 745,
      "Ġreg": 746,
      "pect": 747,
      "Ġpos": 748,
      "ks": 749,
      "stem": 750,
      "iew": 751,
      "pro": 752,
      "Ġeff": 753,
      "Ġtwo": 754,
      "Ġcell": 755,
      "Ġ\\[": 756,
      "Ġfe": 757,
      "Ġdet": 758,
      "cess": 759,
      "){": 760,
      "Ġabout": 761,
      "}\\": 762,
      "ual": 763,
      "Ġcomm": 764,
      "##": 765,
      "Ġinto": 766,
      "ays": 767,
      "Ġ8": 768,
      "Ġunder": 769,
      "Ġra": 770,
      "Ġdiffere": 771,
      "oug": 772,
      "Ġonly": 773,
      "Ġform": 774,
      "ĠThis": 775,
      "fig": 776,
      "Ġsign": 777,
      "ĠIt": 778,
      "eg": 779,
      "ĠY": 780,
      "ause": 781,
      "ati": 782,
      "hed": 783,
      "Ġem": 784,
      "Ġret": 785,
      "Ġprov": 786,
      "Ġpres": 787,
      "Ġinv": 788,
      "red": 789,
      "Ġresult": 790,
      "Ġexp": 791,
      "ings": 792,
      "ween": 793,
      "ark": 794,
      "Ġsa": 795,
      "olog": 796,
      "the": 797,
      "Ġher": 798,
      "Ġset": 799,
      "Ġour": 800,
      "ility": 801,
      "ution": 802,
      "Ġoff": 803,
      "Ġkn": 804,
      "Ġfirst": 805,
      "reat": 806,
      "Ġ10": 807,
      "ont": 808,
      "Ġco": 809,
      "ock": 810,
      "Ġcol": 811,
      "Ġthese": 812,
      "oint": 813,
      "ian": 814,
      "Ġbetween": 815,
      "\"}": 816,
      "oth": 817,
      "Ġ9": 818,
      "ta": 819,
      "Ġwhere": 820,
      "ish": 821,
      "Ġbl": 822,
      "ps": 823,
      "der": 824,
      "ss": 825,
      "right": 826,
      "Ġte": 827,
      "Ġbec": 828,
      "ugh": 829,
      "Ġget": 830,
      "ĠWe": 831,
      "Ġdata": 832,
      "itt": 833,
      "20": 834,
      "ĠCh": 835,
      "'t": 836,
      "Ġ[@": 837,
      ".,": 838,
      "ize": 839,
      "(\\": 840,
      "ption": 841,
      "ink": 842,
      "ĠâĢľ": 843,
      "Ġused": 844,
      "ollow": 845,
      "Ġ201": 846,
      "Ġpr": 847,
      "000": 848,
      "ourt": 849,
      "ments": 850,
      "Ġuse": 851,
      "ick": 852,
      "ĠĠĠĠĠĠ": 853,
      "uc": 854,
      "ype": 855,
      "ruct": 856,
      "Ġinclud": 857,
      "Ġyear": 858,
      ")$": 859,
      "Ġusing": 860,
      "Ġnum": 861,
      "ict": 862,
      "\",": 863,
      "Ġfunction": 864,
      "Ġthen": 865,
      "ange": 866,
      "elf": 867,
      "Ġac": 868,
      "--------------------------------": 869,
      "Ġthem": 870,
      "ix": 871,
      "ateg": 872,
      "iel": 873,
      "St": 874,
      "Ġdist": 875,
      "les": 876,
      "Ġshow": 877,
      "ident": 878,
      "Ġafter": 879,
      "Ġclass": 880,
      "Ġspec": 881,
      "ues": 882,
      "Ġsupp": 883,
      "tern": 884,
      "ered": 885,
      "]{": 886,
      "))": 887,
      "Ġi": 888,
      "ons": 889,
      "Ġfact": 890,
      "als": 891,
      "ible": 892,
      "Ġlike": 893,
      "13": 894,
      "Ġrem": 895,
      "Ġpe": 896,
      "Ġsystem": 897,
      "ĠĠĠĠĠĠĠĠĠĠĠĠĠĠĠĠĠĠĠĠĠĠĠĠĠĠĠĠĠĠĠĠĠĠĠĠĠĠĠĠĠĠĠĠĠĠĠĠĠĠĠĠĠĠĠĠĠĠĠĠĠĠĠĠ": 898,
      "15": 899,
      "Ġfollow": 900,
      "row": 901,
      "Ġsim": 902,
      "enc": 903,
      "ise": 904,
      "err": 905,
      "cal": 906,
      "Ġprob": 907,
      "_{\\": 908,
      "Ġcor": 909,
      "ox": 910,
      "Ġtra": 911,
      "Ġpol": 912,
      "Ġhow": 913,
      "Ġneed": 914,
      "ient": 915,
      "16": 916,
      "Ġatt": 917,
      "Ġrequ": 918,
      "Ġwhat": 919,
      "ood": 920,
      "inal": 921,
      "Ġsur": 922,
      "ures": 923,
      "pos": 924,
      "ield": 925,
      "hen": 926,
      "ined": 927,
      "its": 928,
      "ax": 929,
      "ER": 930,
      "ram": 931,
      "](#": 932,
      "ics": 933,
      "to": 934,
      "ms": 935,
      "Ġprodu": 936,
      "Ġfl": 937,
      "oy": 938,
      "ious": 939,
      "Ġgener": 940,
      "ever": 941,
      "put": 942,
      "Ġinf": 943,
      "aw": 944,
      "ited": 945,
      "Ġconst": 946,
      "Ġeffect": 947,
      "ym": 948,
      "ĠUn": 949,
      "rough": 950,
      "ator": 951,
      "nce": 952,
      "ins": 953,
      "Ġchar": 954,
      "14": 955,
      "frac": 956,
      "Ġshe": 957,
      "Ġhigh": 958,
      "Ġcould": 959,
      "Ġinst": 960,
      "ublic": 961,
      "],": 962,
      "Ġext": 963,
      "Ġdifferent": 964,
      "uring": 965,
      "hes": 966,
      "ract": 967,
      "ized": 968,
      "Ġanal": 969,
      "rm": 970,
      "Ġeach": 971,
      "ning": 972,
      "()": 973,
      "ade": 974,
      "rit": 975,
      "18": 976,
      "Ġgroup": 977,
      "]\\]": 978,
      "ough": 979,
      "Ġpati": 980,
      "Ġ.": 981,
      "Ġjust": 982,
      "ethod": 983,
      "ĠHe": 984,
      "ull": 985,
      "25": 986,
      "Ġshould": 987,
      "Ġvari": 988,
      "ev": 989,
      "li": 990,
      "->": 991,
      "ities": 992,
      "\">": 993,
      "$\\": 994,
      "17": 995,
      "ower": 996,
      "ically": 997,
      "IN": 998,
      "****": 999,
      "]{}": 1000,
      "Ġend": 1001,
      "ng": 1002,
      "yp": 1003,
      "upp": 1004,
      "Ġref": 1005,
      "Ġcase": 1006,
      "Ġincre": 1007,
      "Ġsm": 1008,
      "0000": 1009,
      "set": 1010,
      "Ġmost": 1011,
      "âĢī": 1012,
      "Ġreturn": 1013,
      "Ġthrough": 1014,
      "rol": 1015,
      "Ġpar": 1016,
      "Ġtest": 1017,
      "text": 1018,
      "Ġ200": 1019,
      "imes": 1020,
      "}{": 1021,
      "cri": 1022,
      "par": 1023,
      "Ġwell": 1024,
      "ON": 1025,
      "Ġ\\[[@": 1026,
      "ute": 1027,
      "ople": 1028,
      "Ġent": 1029,
      "oci": 1030,
      "ases": 1031,
      "ature": 1032,
      ",\\": 1033,
      "uch": 1034,
      "val": 1035,
      "sp": 1036,
      "ants": 1037,
      "ĠSe": 1038,
      "ention": 1039,
      "32": 1040,
      "Ġbecause": 1041,
      "Ġpartic": 1042,
      "ines": 1043,
      "NA": 1044,
      "cond": 1045,
      "Ġmodel": 1046,
      "Ġ@": 1047,
      "Ġap": 1048,
      "cept": 1049,
      "ategory": 1050,
      "Ġsaid": 1051,
      "Ġadd": 1052,
      "Ġsee": 1053,
      "Ġhim": 1054,
      "ĠLet": 1055,
      "ctions": 1056,
      "ool": 1057,
      "pr": 1058,
      "Ġdi": 1059,
      "Ġloc": 1060,
      "Ġdid": 1061,
      "$,": 1062,
      "let": 1063,
      "app": 1064,
      "left": 1065,
      "oid": 1066,
      "velop": 1067,
      "50": 1068,
      "ily": 1069,
      "urre": 1070,
      "Ġnumber": 1071,
      "wn": 1072,
      "pha": 1073,
      "igned": 1074,
      "ample": 1075,
      "ck": 1076,
      "mathb": 1077,
      "round": 1078,
      "ational": 1079,
      "yl": 1080,
      "of": 1081,
      "Ġappro": 1082,
      "sh": 1083,
      "Ġaut": 1084,
      "Ġboth": 1085,
      "$.": 1086,
      "22": 1087,
      "ression": 1088,
      "ĠCom": 1089,
      "Ġ:": 1090,
      "Ġknow": 1091,
      "ages": 1092,
      "30": 1093,
      "CR": 1094,
      "Ġback": 1095,
      "erg": 1096,
      "201": 1097,
      "tain": 1098,
      "other": 1099,
      "Ġsol": 1100,
      "Ġexper": 1101,
      "ively": 1102,
      "Ġstudy": 1103,
      "Ġ//": 1104,
      "Ġstate": 1105,
      "atic": 1106,
      "Ġsame": 1107,
      "eng": 1108,
      "Ġest": 1109,
      "Ġpresent": 1110,
      "Ġdoes": 1111,
      "Ġfil": 1112,
      "cent": 1113,
      "AT": 1114,
      ".\"": 1115,
      "ified": 1116,
      "Ġcar": 1117,
      "arch": 1118,
      "ew": 1119,
      "over": 1120,
      "Ġcells": 1121,
      "eta": 1122,
      "Ġz": 1123,
      "Ġfound": 1124,
      "amb": 1125,
      "formation": 1126,
      "rt": 1127,
      "ince": 1128,
      "irect": 1129,
      "Ġmethod": 1130,
      "Ġlevel": 1131,
      "ĠĠĠĠĠĠĠĠĠ": 1132,
      "Ġx": 1133,
      "Th": 1134,
      "Ġmat": 1135,
      "arg": 1136,
      "Ġfind": 1137,
      "Ġprocess": 1138,
      "ward": 1139,
      "Ġke": 1140,
      "Ġpoint": 1141,
      "read": 1142,
      "Ġtri": 1143,
      "Ġ/": 1144,
      "Ġmem": 1145,
      "ared": 1146,
      "Ġcourt": 1147,
      "ret": 1148,
      "ray": 1149,
      "ST": 1150,
      "Ġmon": 1151,
      "(-": 1152,
      "Ġagain": 1153,
      "line": 1154,
      "mer": 1155,
      "Ġser": 1156,
      "Category": 1157,
      "Ġright": 1158,
      "Ġpeople": 1159,
      "Ġ12": 1160,
      "',": 1161,
      "cul": 1162,
      "ful": 1163,
      "alpha": 1164,
      "min": 1165,
      "io": 1166,
      "ron": 1167,
      "Ġterm": 1168,
      "Ġlong": 1169,
      "ext": 1170,
      "::": 1171,
      "Ġvalue": 1172,
      "Ġmin": 1173,
      "ĠFor": 1174,
      "de": 1175,
      "://": 1176,
      "Ġmed": 1177,
      "AR": 1178,
      "fore": 1179,
      "ran": 1180,
      "Ġel": 1181,
      "air": 1182,
      "ting": 1183,
      "ved": 1184,
      "Ġpatients": 1185,
      "Ġcall": 1186,
      "Ġdevelop": 1187,
      "Ġbu": 1188,
      "cer": 1189,
      "Ġ|": 1190,
      "ired": 1191,
      "ices": 1192,
      "lement": 1193,
      "Ġrespon": 1194,
      "ization": 1195,
      "\\[": 1196,
      "Ġperform": 1197,
      "Ġequ": 1198,
      "Ġant": 1199,
      "Ġserv": 1200,
      "ument": 1201,
      "Ġrep": 1202,
      "tr": 1203,
      "Ġnon": 1204,
      "name": 1205,
      "sc": 1206,
      "40": 1207,
      "led": 1208,
      "da": 1209,
      "...": 1210,
      "urrent": 1211,
      "ĠPro": 1212,
      "Ġmake": 1213,
      "ense": 1214,
      "Ġeven": 1215,
      "abel": 1216,
      "Ġdisc": 1217,
      "Ġop": 1218,
      "Ġyears": 1219,
      "Ġthose": 1220,
      "Ġpers": 1221,
      "Ġvery": 1222,
      "Ġway": 1223,
      "raph": 1224,
      "Ġet": 1225,
      "oad": 1226,
      "Ġprovid": 1227,
      "EN": 1228,
      "ason": 1229,
      "ole": 1230,
      "Ġgiv": 1231,
      "ann": 1232,
      "80": 1233,
      "Ġdec": 1234,
      "ency": 1235,
      "Ġdep": 1236,
      "Ġmany": 1237,
      "Ġche": 1238,
      "}(": 1239,
      "ĠAl": 1240,
      "ivity": 1241,
      "Ġorder": 1242,
      "ify": 1243,
      "Ġevery": 1244,
      "ysis": 1245,
      "ality": 1246,
      "Ġbefore": 1247,
      "Ġins": 1248,
      "Ġprog": 1249,
      "Ġsecond": 1250,
      "Fig": 1251,
      "24": 1252,
      "Ġsignific": 1253,
      "Ġsupport": 1254,
      "alth": 1255,
      "23": 1256,
      "Ġnow": 1257,
      "ision": 1258,
      "Ġhere": 1259,
      "Ġbel": 1260,
      "Ġconsid": 1261,
      "ving": 1262,
      "Ġcre": 1263,
      "Ġstr": 1264,
      "work": 1265,
      "Ġbeing": 1266,
      "Ġplay": 1267,
      "acter": 1268,
      "Ġname": 1269,
      "view": 1270,
      "....": 1271,
      "ulation": 1272,
      "Ġread": 1273,
      "ody": 1274,
      "agn": 1275,
      "ond": 1276,
      "Ġduring": 1277,
      "Ġposs": 1278,
      "ife": 1279,
      "Ġwhile": 1280,
      "mathcal": 1281,
      "ale": 1282,
      "ave": 1283,
      "ĠâĢĵ": 1284,
      "ness": 1285,
      "Ġline": 1286,
      "Ġwor": 1287,
      "ential": 1288,
      "ability": 1289,
      "irc": 1290,
      "Ġprev": 1291,
      "Let": 1292,
      "Ġwant": 1293,
      "IT": 1294,
      "Ġmade": 1295,
      "Ġoper": 1296,
      "Ġelect": 1297,
      "ĠÂ": 1298,
      "ement": 1299,
      "ĠHow": 1300,
      "Ġwithout": 1301,
      "Ġ18": 1302,
      "ism": 1303,
      "Ġresults": 1304,
      "ĠAs": 1305,
      "ars": 1306,
      "OR": 1307,
      "Ġerr": 1308,
      "---": 1309,
      "Ġmeas": 1310,
      "Ġav": 1311,
      ")\\": 1312,
      "Ġmet": 1313,
      "26": 1314,
      "Ġthree": 1315,
      "ral": 1316,
      "^{\\": 1317,
      "Ġreport": 1318,
      "Ġprote": 1319,
      "itive": 1320,
      "99": 1321,
      "Ġlook": 1322,
      "chn": 1323,
      "Ġpublic": 1324,
      "any": 1325,
      "44": 1326,
      "(\"": 1327,
      "ns": 1328,
      "str": 1329,
      "Ġcontrol": 1330,
      "Ġgu": 1331,
      "ES": 1332,
      "Ġ20": 1333,
      "med": 1334,
      "ĠÎ": 1335,
      "ww": 1336,
      "ner": 1337,
      "arly": 1338,
      "Ġproper": 1339,
      "serv": 1340,
      "Ġstruct": 1341,
      "ash": 1342,
      "def": 1343,
      "ren": 1344,
      "aint": 1345,
      "27": 1346,
      "not": 1347,
      "Ġtype": 1348,
      "Ġconf": 1349,
      "idence": 1350,
      "ĠIf": 1351,
      "Ġsignificant": 1352,
      "200": 1353,
      "gan": 1354,
      "rict": 1355,
      "Ġinformation": 1356,
      "].": 1357,
      "Ġhel": 1358,
      "urther": 1359,
      "Ġsmall": 1360,
      "Ġdown": 1361,
      "Ġu": 1362,
      "Ġdev": 1363,
      "35": 1364,
      "ĠAn": 1365,
      "ivid": 1366,
      "Ġhand": 1367,
      "Ġimport": 1368,
      "Ġident": 1369,
      "aking": 1370,
      "ton": 1371,
      "uss": 1372,
      "ually": 1373,
      "Ġappe": 1374,
      "ven": 1375,
      "Ã©": 1376,
      "duct": 1377,
      "]\\].": 1378,
      "Ġdeterm": 1379,
      "gg": 1380,
      "Ġproble": 1381,
      "Ġstart": 1382,
      "ination": 1383,
      "ists": 1384,
      "Ġgood": 1385,
      "Ġ15": 1386,
      "Ġpri": 1387,
      "ots": 1388,
      "\":": 1389,
      "Ġcount": 1390,
      "What": 1391,
      "Ġmult": 1392,
      "aterial": 1393,
      "ead": 1394,
      "way": 1395,
      "ource": 1396,
      "tt": 1397,
      "Ġdon": 1398,
      "ambda": 1399,
      "We": 1400,
      "ration": 1401,
      "Ġ{#": 1402,
      "34": 1403,
      "ology": 1404,
      "ected": 1405,
      "Ġfollowing": 1406,
      "CT": 1407,
      "Ex": 1408,
      "Ġpur": 1409,
      "amma": 1410,
      "60": 1411,
      "cial": 1412,
      "Ġmust": 1413,
      "htt": 1414,
      "Ġ$$\\": 1415,
      "ho": 1416,
      "erest": 1417,
      "Ġown": 1418,
      "rel": 1419,
      "ather": 1420,
      "37": 1421,
      "amet": 1422,
      "miss": 1423,
      "yn": 1424,
      "for": 1425,
      "Ġcondition": 1426,
      "Ġgl": 1427,
      "It": 1428,
      "Ġaddition": 1429,
      "ery": 1430,
      "64": 1431,
      "Ġmuch": 1432,
      "ium": 1433,
      "Ġdirect": 1434,
      "crib": 1435,
      "28": 1436,
      "ĠQ": 1437,
      "arge": 1438,
      "gen": 1439,
      "Ġstat": 1440,
      "Ġlim": 1441,
      "âĪ": 1442,
      "me": 1443,
      "ier": 1444,
      "ĠX": 1445,
      "Ġwithin": 1446,
      "Ġlet": 1447,
      "ãģ": 1448,
      "lex": 1449,
      "Ġtreat": 1450,
      "aim": 1451,
      "ml": 1452,
      "},": 1453,
      "yt": 1454,
      "ters": 1455,
      "ished": 1456,
      "ived": 1457,
      "Ġcontain": 1458,
      "ank": 1459,
      "AN": 1460,
      "Ġtem": 1461,
      "man": 1462,
      "Ġpost": 1463,
      "Ġcent": 1464,
      "ĠAnd": 1465,
      "amp": 1466,
      "Ġed": 1467,
      "AL": 1468,
      "Ġmain": 1469,
      "Ġstand": 1470,
      "Ġinc": 1471,
      "Ġart": 1472,
      "face": 1473,
      "SE": 1474,
      "Ġ*/": 1475,
      "Ġiss": 1476,
      "Ġ**": 1477,
      "================": 1478,
      "Ġredu": 1479,
      "ĠZ": 1480,
      "sec": 1481,
      "Ġaff": 1482,
      "ackage": 1483,
      "Pro": 1484,
      "hip": 1485,
      "05": 1486,
      "ior": 1487,
      "Ġlead": 1488,
      "Ġexpl": 1489,
      "day": 1490,
      "Ġrun": 1491,
      "Ġassoci": 1492,
      "ross": 1493,
      "Ġcurrent": 1494,
      "Ġchild": 1495,
      "Ġanalysis": 1496,
      "____": 1497,
      "ection": 1498,
      "mathbb": 1499,
      "resent": 1500,
      "mb": 1501,
      "95": 1502,
      "Ġcle": 1503,
      "ĠĠĠĠĠĠĠĠĠĠĠĠĠĠĠĠĠĠĠĠĠĠĠĠ": 1504,
      "Ġrece": 1505,
      "38": 1506,
      "Ġrespect": 1507,
      ")/": 1508,
      "Ġapplic": 1509,
      "45": 1510,
      "$$": 1511,
      "here": 1512,
      "oh": 1513,
      "Ġcou": 1514,
      "aj": 1515,
      "icro": 1516,
      "Ġdem": 1517,
      "Ġquest": 1518,
      "less": 1519,
      "Ġthink": 1520,
      "Ġfin": 1521,
      "21": 1522,
      "atch": 1523,
      "Ġallow": 1524,
      "ured": 1525,
      "pi": 1526,
      "Ġobtain": 1527,
      "ĠHowever": 1528,
      "Ġfile": 1529,
      "ately": 1530,
      "Con": 1531,
      "Ġindic": 1532,
      "ural": 1533,
      "cript": 1534,
      "Ġhelp": 1535,
      "iqu": 1536,
      "ouse": 1537,
      "ength": 1538,
      "ek": 1539,
      "ule": 1540,
      "Ġgra": 1541,
      "ording": 1542,
      "inf": 1543,
      "36": 1544,
      "Ġobserv": 1545,
      "ently": 1546,
      "Ġfield": 1547,
      "elta": 1548,
      "LE": 1549,
      "ets": 1550,
      "Ġlow": 1551,
      "Ġder": 1552,
      "Ġcal": 1553,
      "Ġ16": 1554,
      "Ġ{\\": 1555,
      "ience": 1556,
      "Ġbased": 1557,
      "();": 1558,
      "Ġlist": 1559,
      "ital": 1560,
      "('": 1561,
      "Ġsing": 1562,
      "ams": 1563,
      "Ġexample": 1564,
      "mu": 1565,
      "ffic": 1566,
      "29": 1567,
      "ane": 1568,
      "Ġbas": 1569,
      "pone": 1570,
      "ivers": 1571,
      "ploy": 1572,
      "Ġmot": 1573,
      "dict": 1574,
      "Ġfam": 1575,
      "Ġtechn": 1576,
      "âĪĴ": 1577,
      "Ġperson": 1578,
      "reg": 1579,
      "Ġagainst": 1580,
      "Ġcontin": 1581,
      "ĠĠĠĠĠĠĠĠĠĠĠĠĠĠĠĠĠĠĠ": 1582,
      "####": 1583,
      "ĠYou": 1584,
      "Ġ14": 1585,
      "Ġincluding": 1586,
      "hib": 1587,
      "eral": 1588,
      "ames": 1589,
      "Ġobject": 1590,
      "39": 1591,
      "ah": 1592,
      "Ġocc": 1593,
      "arm": 1594,
      "Ġstill": 1595,
      "ee": 1596,
      "Ġgiven": 1597,
      "ional": 1598,
      "75": 1599,
      "ification": 1600,
      "Ġlast": 1601,
      "uro": 1602,
      "Ġsince": 1603,
      "Ġopt": 1604,
      "igma": 1605,
      "Ġdescrib": 1606,
      "label": 1607,
      "erence": 1608,
      "Ġinterest": 1609,
      "ĠCon": 1610,
      "ĠNo": 1611,
      "ID": 1612,
      "ote": 1613,
      "az": 1614,
      "Ġtyp": 1615,
      "abl": 1616,
      "Ġadv": 1617,
      "Ġwr": 1618,
      "ribut": 1619,
      "Ġimp": 1620,
      "be": 1621,
      "Ġpower": 1622,
      "Ġchang": 1623,
      "requ": 1624,
      "land": 1625,
      "Ġday": 1626,
      "arent": 1627,
      "Ġsom": 1628,
      "etic": 1629,
      "Ġrest": 1630,
      "Ġcommun": 1631,
      "Ġtake": 1632,
      "Ġhum": 1633,
      "Ġ_": 1634,
      "ocument": 1635,
      "ern": 1636,
      "ĠNew": 1637,
      "ury": 1638,
      "arget": 1639,
      "mun": 1640,
      "ither": 1641,
      "lu": 1642,
      "Ġpot": 1643,
      ",\"": 1644,
      "meric": 1645,
      "Ġrele": 1646,
      "IC": 1647,
      "This": 1648,
      "rid": 1649,
      "Ġpop": 1650,
      "48": 1651,
      "ĠCl": 1652,
      "ĠBut": 1653,
      "Ġbre": 1654,
      "rap": 1655,
      "qrt": 1656,
      "Ġlaw": 1657,
      "Ġpath": 1658,
      "70": 1659,
      "roup": 1660,
      "lambda": 1661,
      "Ġve": 1662,
      "ples": 1663,
      "egin": 1664,
      "alse": 1665,
      "Ġmark": 1666,
      "bl": 1667,
      "âĢĵ": 1668,
      "Ġcare": 1669,
      "Ġpass": 1670,
      "ends": 1671,
      "Ġdel": 1672,
      "AS": 1673,
      "Ġdr": 1674,
      "Ġproduct": 1675,
      "roll": 1676,
      "bers": 1677,
      "Ġprogram": 1678,
      "version": 1679,
      "Ġreal": 1680,
      "RE": 1681,
      "ining": 1682,
      "=\\": 1683,
      "aligned": 1684,
      "igh": 1685,
      "opy": 1686,
      "Ġvis": 1687,
      "oot": 1688,
      "lection": 1689,
      "Ġbi": 1690,
      "Ġhy": 1691,
      "alk": 1692,
      "by": 1693,
      "Ġmean": 1694,
      "iness": 1695,
      "Ġopen": 1696,
      "Ġparticular": 1697,
      "AC": 1698,
      "Ġarg": 1699,
      "plic": 1700,
      "ves": 1701,
      "ccess": 1702,
      "hor": 1703,
      "Ġ#": 1704,
      "att": 1705,
      "Ġexpression": 1706,
      ".âĢĿ": 1707,
      "action": 1708,
      "refore": 1709,
      "Ġcharacter": 1710,
      "col": 1711,
      "Ġsugg": 1712,
      "ilar": 1713,
      "Ġsuggest": 1714,
      "Ġbro": 1715,
      "33": 1716,
      "oper": 1717,
      "}_{": 1718,
      "Ġ</": 1719,
      "equ": 1720,
      "ĠDe": 1721,
      "bs": 1722,
      "Ġabove": 1723,
      "Ġlarge": 1724,
      "Ġtreatment": 1725,
      "}_": 1726,
      "Ġhealth": 1727,
      "ably": 1728,
      "Ġcap": 1729,
      "oss": 1730,
      "osed": 1731,
      "vert": 1732,
      "Ġclaim": 1733,
      "ergy": 1734,
      "Ġanother": 1735,
      "}$$": 1736,
      "beta": 1737,
      "ormal": 1738,
      "nces": 1739,
      "Ġ199": 1740,
      "begin": 1741,
      "ding": 1742,
      "orn": 1743,
      "opt": 1744,
      "chool": 1745,
      "Ġshown": 1746,
      "Ġless": 1747,
      "ird": 1748,
      "ware": 1749,
      "Ġinvest": 1750,
      "********": 1751,
      "por": 1752,
      "Ġbeh": 1753,
      "ĠAd": 1754,
      "âĢľ": 1755,
      "Ġsize": 1756,
      "ble": 1757,
      "epend": 1758,
      "Ġsay": 1759,
      "Ġlife": 1760,
      "Ġimportant": 1761,
      "anc": 1762,
      "data": 1763,
      "phi": 1764,
      "];": 1765,
      "ertain": 1766,
      "ĠPh": 1767,
      "self": 1768,
      "ope": 1769,
      "ering": 1770,
      "Ġavail": 1771,
      "Ġsl": 1772,
      "100": 1773,
      "els": 1774,
      "ĠApp": 1775,
      "})": 1776,
      "Ġrad": 1777,
      "Ġ30": 1778,
      "ĠIs": 1779,
      "ĠWhat": 1780,
      "ung": 1781,
      "stand": 1782,
      "ological": 1783,
      "Ġdue": 1784,
      "mat": 1785,
      "ik": 1786,
      "ives": 1787,
      "Ġgreat": 1788,
      "Ġ17": 1789,
      "IS": 1790,
      "Ġcode": 1791,
      "ended": 1792,
      "ott": 1793,
      "Ġprof": 1794,
      "akes": 1795,
      "Ġevidence": 1796,
      "Ġself": 1797,
      "55": 1798,
      "ED": 1799,
      "var": 1800,
      "sum": 1801,
      "ety": 1802,
      "Ġremain": 1803,
      "To": 1804,
      "iod": 1805,
      "Ġ,": 1806,
      "Cl": 1807,
      "Ġmight": 1808,
      "Ġtry": 1809,
      "Ġworld": 1810,
      "Ch": 1811,
      "Ġtop": 1812,
      "Ġlight": 1813,
      "ĠEx": 1814,
      "Ġ>": 1815,
      "Ġfail": 1816,
      "etwork": 1817,
      "cd": 1818,
      "Ġvol": 1819,
      "play": 1820,
      "isk": 1821,
      "^\\": 1822,
      "Ġchange": 1823,
      "Ġinvol": 1824,
      "Ġwhether": 1825,
      "}^{": 1826,
      "Ġproblem": 1827,
      "Ġimpro": 1828,
      "Ġpossible": 1829,
      "Ġrepresent": 1830,
      "ograph": 1831,
      "Ġsequ": 1832,
      "Ġ11": 1833,
      "ways": 1834,
      "46": 1835,
      "apt": 1836,
      "Ġinit": 1837,
      "Ġtot": 1838,
      "Ġview": 1839,
      "iron": 1840,
      "ault": 1841,
      "Ġden": 1842,
      "imal": 1843,
      "Ġexpect": 1844,
      "ĠSh": 1845,
      "Ġrecord": 1846,
      "idth": 1847,
      "div": 1848,
      "Ġlocal": 1849,
      "son": 1850,
      "Ġvalues": 1851,
      "Ġbus": 1852,
      "ĠWh": 1853,
      "ger": 1854,
      "Ġprovide": 1855,
      "ser": 1856,
      "Ġ==": 1857,
      "ised": 1858,
      "88": 1859,
      "ems": 1860,
      "Ġbest": 1861,
      "Ġ--": 1862,
      "Ġrese": 1863,
      "As": 1864,
      "ĠCourt": 1865,
      "Ġknown": 1866,
      "itor": 1867,
      "Ġaround": 1868,
      "ividual": 1869,
      "Ġfr": 1870,
      "Ġ([": 1871,
      "ene": 1872,
      "Ġdri": 1873,
      "ask": 1874,
      "Ġfour": 1875,
      "Ġprevious": 1876,
      "Ġmonth": 1877,
      "Ġposition": 1878,
      "Ġ!": 1879,
      "Ġfurther": 1880,
      "uppose": 1881,
      "ĠAmeric": 1882,
      "cription": 1883,
      "omen": 1884,
      "inc": 1885,
      "ĠThese": 1886,
      "Ġcommon": 1887,
      "Ġprot": 1888,
      "Ġstudies": 1889,
      "icle": 1890,
      "rop": 1891,
      "Ġtrue": 1892,
      "ĉĉĉ": 1893,
      "Ġsimilar": 1894,
      "Ġplace": 1895,
      "usion": 1896,
      "angle": 1897,
      "ĠInd": 1898,
      "Ġnext": 1899,
      "ĠTo": 1900,
      "usep": 1901,
      "ought": 1902,
      "ts": 1903,
      "Ġsingle": 1904,
      "Ġsit": 1905,
      "Ġ13": 1906,
      "ĠRe": 1907,
      "-\\": 1908,
      "66": 1909,
      "LL": 1910,
      "ilon": 1911,
      "Ġerror": 1912,
      "usepackage": 1913,
      "ĠĠĠĠĠĠĠĠĠĠĠĠĠ": 1914,
      "iment": 1915,
      "eps": 1916,
      "Com": 1917,
      "Ġsever": 1918,
      "Ġes": 1919,
      "Ġhead": 1920,
      "part": 1921,
      "Ġpa": 1922,
      "ĠUnited": 1923,
      "Ġspecific": 1924,
      "Ġavailable": 1925,
      "Ġfew": 1926,
      "string": 1927,
      "che": 1928,
      "Ġbo": 1929,
      "ĠAll": 1930,
      "iple": 1931,
      "ĠOn": 1932,
      "ĠThere": 1933,
      "90": 1934,
      "ET": 1935,
      "Ġmaterial": 1936,
      "Ġhist": 1937,
      "ittle": 1938,
      "Ġ([@": 1939,
      "Ġgeneral": 1940,
      "sub": 1941,
      "ĠPl": 1942,
      "Ġleft": 1943,
      "respon": 1944,
      "bar": 1945,
      "sqrt": 1946,
      "Ġ25": 1947,
      "Ġcases": 1948,
      "Ġparamet": 1949,
      "urs": 1950,
      "Ġreason": 1951,
      "mon": 1952,
      "AM": 1953,
      "cont": 1954,
      "Ġpotential": 1955,
      "Ġassociated": 1956,
      "_\\": 1957,
      "Ġreview": 1958,
      "arn": 1959,
      "aps": 1960,
      "Ġhigher": 1961,
      "CC": 1962,
      "Ġcirc": 1963,
      "Ġselect": 1964,
      "ances": 1965,
      "roid": 1966,
      "table": 1967,
      "Ġsk": 1968,
      "Ġcomb": 1969,
      "org": 1970,
      "ĠĠĠĠĠĠĠĠĠĠĠĠ": 1971,
      "Ġtoo": 1972,
      "Ġorig": 1973,
      "Ġdise": 1974,
      "Ġindividual": 1975,
      "Ġeas": 1976,
      "return": 1977,
      "47": 1978,
      "af": 1979,
      "Ġsum": 1980,
      "ĠStates": 1981,
      "eq": 1982,
      "Ġlevels": 1983,
      "eb": 1984,
      "ina": 1985,
      "unc": 1986,
      "Ġfree": 1987,
      "Ġhaving": 1988,
      "'m": 1989,
      "mission": 1990,
      "til": 1991,
      "AP": 1992,
      "ething": 1993,
      "though": 1994,
      "chan": 1995,
      "Ġleast": 1996,
      "Ġgrow": 1997,
      "69": 1998,
      "Ġleg": 1999,
      "Ġemploy": 2000,
      "ĠThey": 2001,
      "Ġassum": 2002,
      "65": 2003,
      "Ġele": 2004,
      "Ġpat": 2005,
      "Ġactiv": 2006,
      "Ġperiod": 2007,
      "Ġprom": 2008,
      "amples": 2009,
      "Ġdays": 2010,
      "ĠĠĠĠĠĠĠĠĠĠ": 2011,
      "ĠSo": 2012,
      "]).": 2013,
      "Ġold": 2014,
      "sequ": 2015,
      "Ġphys": 2016,
      "Ġkey": 2017,
      "67": 2018,
      "aring": 2019,
      "Ã¡": 2020,
      "nal": 2021,
      "49": 2022,
      "gamma": 2023,
      "osis": 2024,
      "Ġ100": 2025,
      "ressed": 2026,
      "Ġjud": 2027,
      "Ġ${\\": 2028,
      "Ġtrial": 2029,
      ")*": 2030,
      "Ġtotal": 2031,
      "ij": 2032,
      "Ġeither": 2033,
      "bib": 2034,
      "ending": 2035,
      "RO": 2036,
      "ribution": 2037,
      "Ġmicro": 2038,
      "ler": 2039,
      "ides": 2040,
      "uf": 2041,
      "back": 2042,
      "HE": 2043,
      "yle": 2044,
      "Ġinte": 2045,
      "ten": 2046,
      "Ġgoing": 2047,
      "Ġorgan": 2048,
      "ctor": 2049,
      "Ġelse": 2050,
      "ĠCol": 2051,
      "Name": 2052,
      "85": 2053,
      "new": 2054,
      "ged": 2055,
      "oo": 2056,
      "Ġstandard": 2057,
      "ajor": 2058,
      "Ġquestion": 2059,
      "AD": 2060,
      "Ġconsider": 2061,
      "Ġaccess": 2062,
      "mm": 2063,
      "ats": 2064,
      "II": 2065,
      "Ġtre": 2066,
      "cle": 2067,
      "Ġbetter": 2068,
      "add": 2069,
      "ĠSc": 2070,
      "ison": 2071,
      "duced": 2072,
      "Ġgover": 2073,
      "Ġla": 2074,
      "Ġgre": 2075,
      "Ġreally": 2076,
      "IG": 2077,
      "ĠAr": 2078,
      "ream": 2079,
      "\"}).": 2080,
      "Ġabs": 2081,
      "Ġneg": 2082,
      "gment": 2083,
      "Ġcost": 2084,
      "):": 2085,
      "Ġturn": 2086,
      "31": 2087,
      "dd": 2088,
      "ences": 2089,
      "Ġrate": 2090,
      "ĠÐ": 2091,
      "Ġid": 2092,
      "Ġhome": 2093,
      "Ġmov": 2094,
      "ĠTr": 2095,
      "Ġput": 2096,
      "ĠRes": 2097,
      "Ġcompared": 2098,
      "Ġdesign": 2099,
      "aut": 2100,
      "Ġhuman": 2101,
      "indow": 2102,
      "ustom": 2103,
      "Ġseveral": 2104,
      "sigma": 2105,
      "http": 2106,
      "Ġenergy": 2107,
      "Ġarea": 2108,
      "{{\\": 2109,
      "Ġtarget": 2110,
      "sw": 2111,
      "clude": 2112,
      "87": 2113,
      "rain": 2114,
      "Ġexist": 2115,
      "Type": 2116,
      "ystem": 2117,
      "aces": 2118,
      "Ġprim": 2119,
      "rim": 2120,
      "Ġprotein": 2121,
      "thing": 2122,
      "log": 2123,
      "mod": 2124,
      "Ġgive": 2125,
      "Ġide": 2126,
      "Ġsens": 2127,
      "Ġgroups": 2128,
      "Ġport": 2129,
      "co": 2130,
      "Ġsuper": 2131,
      "Id": 2132,
      "Ġlittle": 2133,
      "ival": 2134,
      "Ġbuild": 2135,
      "Ġtimes": 2136,
      "itted": 2137,
      "++": 2138,
      "Ġresponse": 2139,
      "Ġ%": 2140,
      "osp": 2141,
      "Ġsubject": 2142,
      "ĠUS": 2143,
      "AG": 2144,
      "ĠAt": 2145,
      "Ġsignal": 2146,
      "nment": 2147,
      "04": 2148,
      "Ġmus": 2149,
      "viron": 2150,
      "atures": 2151,
      "Ġmeans": 2152,
      "Ġactivity": 2153,
      "Ġrequired": 2154,
      "Ġwater": 2155,
      "Ġfamily": 2156,
      "ION": 2157,
      "Ġlater": 2158,
      "Ġnever": 2159,
      "Ġbar": 2160,
      "rack": 2161,
      "place": 2162,
      "^{-": 2163,
      "Ġdiscuss": 2164,
      "iversity": 2165,
      "class": 2166,
      "Ġobserved": 2167,
      "Ġfactors": 2168,
      "Ġcompon": 2169,
      "001": 2170,
      "Î±": 2171,
      "Ġsomething": 2172,
      "Ġcaus": 2173,
      "89": 2174,
      "ilde": 2175,
      "Ġsw": 2176,
      "Ġrange": 2177,
      "02": 2178,
      "omet": 2179,
      "Ġflu": 2180,
      "Ġlay": 2181,
      "oor": 2182,
      "time": 2183,
      "ension": 2184,
      "Ġestim": 2185,
      "Ġsat": 2186,
      "For": 2187,
      "Ġmass": 2188,
      "77": 2189,
      "olution": 2190,
      "iation": 2191,
      "Ġdevelopment": 2192,
      "Ġupon": 2193,
      "Ġnetwork": 2194,
      "arrow": 2195,
      "mit": 2196,
      "iting": 2197,
      "Ġphot": 2198,
      "Res": 2199,
      "rant": 2200,
      "ception": 2201,
      "ga": 2202,
      ")}": 2203,
      "ored": 2204,
      "rad": 2205,
      "Ġask": 2206,
      "Ġproject": 2207,
      "Ġrisk": 2208,
      "uit": 2209,
      "----------------------------------------------------------------": 2210,
      "Ġperformed": 2211,
      "Ġ24": 2212,
      "raw": 2213,
      "$-": 2214,
      "const": 2215,
      "Ġmeasure": 2216,
      "hy": 2217,
      "String": 2218,
      "Ġlower": 2219,
      "Ġside": 2220,
      "Ġ(*": 2221,
      "ape": 2222,
      "ores": 2223,
      "Ġinclude": 2224,
      "Ġshort": 2225,
      "Ġconditions": 2226,
      "alu": 2227,
      "ember": 2228,
      "Ġeffects": 2229,
      "Ġincreased": 2230,
      "Ġhapp": 2231,
      "Ġcalled": 2232,
      "Ġmechan": 2233,
      "Ġbelie": 2234,
      "Ġdefend": 2235,
      "ĠShe": 2236,
      "Ġaction": 2237,
      "verage": 2238,
      "Ġeng": 2239,
      "rr": 2240,
      "Ġtemper": 2241,
      "An": 2242,
      "Ġlik": 2243,
      "ables": 2244,
      "asing": 2245,
      "Ġquant": 2246,
      "Ġrequire": 2247,
      "Ġdescribed": 2248,
      "Ġcalcul": 2249,
      "Ġpress": 2250,
      "Ġspect": 2251,
      "Ġsuccess": 2252,
      "Ġterms": 2253,
      "ibility": 2254,
      "Ġcheck": 2255,
      "Ġbook": 2256,
      "itle": 2257,
      "Ġcontent": 2258,
      "Ġbusiness": 2259,
      "fl": 2260,
      "Ġopp": 2261,
      "ĠĠĠĠĠĠĠĠĠĠĠĠĠĠĠĠĠĠĠĠĠĠĠĠĠĠĠĠĠĠĠĠĠĠĠĠĠĠĠĠĠĠĠĠĠĠĠĠĠĠĠĠĠĠĠĠĠĠĠĠĠĠĠĠĠĠĠĠĠĠĠĠĠĠĠĠĠĠĠĠĠĠĠĠĠĠĠĠĠĠĠĠĠĠĠĠĠĠĠĠĠĠĠĠĠĠĠĠĠĠĠĠĠĠĠĠĠĠĠĠĠĠĠĠĠĠĠĠ": 2262,
      "inter": 2263,
      "Ġage": 2264,
      "Ġamong": 2265,
      "Ġcomput": 2266,
      "mathbf": 2267,
      "Ġcrit": 2268,
      "Ġfrequ": 2269,
      "Ġhold": 2270,
      "rix": 2271,
      "Ġstring": 2272,
      "Ġinvestig": 2273,
      "ĠCal": 2274,
      "ensity": 2275,
      "ney": 2276,
      "go": 2277,
      "vent": 2278,
      "ĠCo": 2279,
      "Ġprovided": 2280,
      "ising": 2281,
      "Ġmagn": 2282,
      "Ġamount": 2283,
      "ours": 2284,
      "Ġobtained": 2285,
      "Ġfull": 2286,
      "Ġmajor": 2287,
      "09": 2288,
      "ground": 2289,
      "atory": 2290,
      "Ġ)": 2291,
      "Ġword": 2292,
      "essage": 2293,
      "aster": 2294,
      "Ġcho": 2295,
      "Ġrole": 2296,
      "td": 2297,
      "Ġuser": 2298,
      "Ġalong": 2299,
      "ries": 2300,
      "\")": 2301,
      "Ġhowever": 2302,
      "ique": 2303,
      "*,": 2304,
      "Ġstructure": 2305,
      "List": 2306,
      "empt": 2307,
      "iving": 2308,
      "Ġable": 2309,
      "aintiff": 2310,
      "Ġstrong": 2311,
      "If": 2312,
      "------------": 2313,
      "nc": 2314,
      "Ġreported": 2315,
      "acy": 2316,
      "Ġmanag": 2317,
      "ued": 2318,
      "Ġdecre": 2319,
      "uff": 2320,
      "ift": 2321,
      "ators": 2322,
      "><": 2323,
      "no": 2324,
      "Ġchildren": 2325,
      "ĠState": 2326,
      "Ġpay": 2327,
      "Ġsubst": 2328,
      "ogn": 2329,
      "key": 2330,
      "ÃŃ": 2331,
      "ey": 2332,
      "Ð¾": 2333,
      "ling": 2334,
      "ĠBl": 2335,
      "Ð°": 2336,
      "Ġplan": 2337,
      "iver": 2338,
      "Ġconduct": 2339,
      ",âĢĿ": 2340,
      "Ġspace": 2341,
      "Ġgame": 2342,
      "this": 2343,
      "Ġincrease": 2344,
      "Ġimage": 2345,
      "ready": 2346,
      "Ġsection": 2347,
      "Ġhard": 2348,
      "OT": 2349,
      "Ġcomplex": 2350,
      "Ph": 2351,
      "Ġchanges": 2352,
      "ĠĠĠĠĠĠĠĠĠĠĠĠĠĠĠĠĠĠĠĠĠĠĠ": 2353,
      "ocial": 2354,
      "Ġestabl": 2355,
      "ties": 2356,
      "ubl": 2357,
      "Ġpract": 2358,
      "Ġinj": 2359,
      "rect": 2360,
      "wh": 2361,
      "Ġpositive": 2362,
      "www": 2363,
      "Ġconv": 2364,
      "Ġsource": 2365,
      "aken": 2366,
      "Ġuntil": 2367,
      "DE": 2368,
      "Ġben": 2369,
      "au": 2370,
      "ogen": 2371,
      "pri": 2372,
      "+\\": 2373,
      "06": 2374,
      "Ġcorrespon": 2375,
      "}^": 2376,
      "cular": 2377,
      "ales": 2378,
      "Val": 2379,
      "Ġbound": 2380,
      "Ġunderstand": 2381,
      "Ġschool": 2382,
      "Ġevent": 2383,
      "ependent": 2384,
      "Ġdom": 2385,
      "Ġnecess": 2386,
      "Tr": 2387,
      "Ġthings": 2388,
      "ush": 2389,
      "iol": 2390,
      "orth": 2391,
      "Al": 2392,
      "Is": 2393,
      "Ġlog": 2394,
      "Ġcy": 2395,
      "ĠSp": 2396,
      "Ġservice": 2397,
      "Ġep": 2398,
      "Ġsent": 2399,
      "comm": 2400,
      "Ġcertain": 2401,
      "Ġsurface": 2402,
      "Ġenc": 2403,
      "/*": 2404,
      "leq": 2405,
      "86": 2406,
      "Ġmultiple": 2407,
      "97": 2408,
      "Ġfinal": 2409,
      "AB": 2410,
      "cur": 2411,
      "Ġoften": 2412,
      "Ġclin": 2413,
      "Ġsystems": 2414,
      "Ġfactor": 2415,
      "Ġq": 2416,
      "Ġdeg": 2417,
      "alf": 2418,
      "uration": 2419,
      "Col": 2420,
      "Ðµ": 2421,
      "olve": 2422,
      "vate": 2423,
      "Â±": 2424,
      "ourse": 2425,
      "Ġtext": 2426,
      "Ġsepar": 2427,
      "Ġdetail": 2428,
      "vironment": 2429,
      "angu": 2430,
      "Ġvir": 2431,
      "Ġweek": 2432,
      "Ġalways": 2433,
      "Figure": 2434,
      "Ġcome": 2435,
      "ici": 2436,
      "uck": 2437,
      "Ġfac": 2438,
      "rho": 2439,
      "Ġevalu": 2440,
      "%)": 2441,
      "Ġ50": 2442,
      "Ġlarg": 2443,
      "ĠWhen": 2444,
      "bf": 2445,
      "Ġshowed": 2446,
      "Ġdevice": 2447,
      "âĢĶ": 2448,
      "big": 2449,
      "br": 2450,
      "arc": 2451,
      "Ġbig": 2452,
      "ump": 2453,
      "load": 2454,
      "lete": 2455,
      "Ġair": 2456,
      "Ġversion": 2457,
      "outh": 2458,
      "ges": 2459,
      "Ġconcent": 2460,
      "Ġaccount": 2461,
      "You": 2462,
      "Ġmax": 2463,
      "Ġnormal": 2464,
      "umber": 2465,
      "Ġresearch": 2466,
      "ruction": 2467,
      "theta": 2468,
      "Ġ(-": 2469,
      "UR": 2470,
      "Ġoffic": 2471,
      "Ġconn": 2472,
      "Ġmut": 2473,
      "Ġdisease": 2474,
      "ley": 2475,
      "Ġ\\\\": 2476,
      "Ġfra": 2477,
      "ids": 2478,
      "Ġgot": 2479,
      "Ġsolution": 2480,
      "CH": 2481,
      "Cont": 2482,
      "istic": 2483,
      "FF": 2484,
      "Ġmen": 2485,
      "Ġvarious": 2486,
      "imum": 2487,
      "test": 2488,
      "ÂłÂł": 2489,
      "}{\\": 2490,
      "57": 2491,
      "ories": 2492,
      "ceed": 2493,
      "Ġissue": 2494,
      "Ġ`": 2495,
      "itud": 2496,
      "rist": 2497,
      "pec": 2498,
      "Ġbody": 2499,
      "84": 2500,
      "ĠSee": 2501,
      "03": 2502,
      "MP": 2503,
      "82": 2504,
      "ucle": 2505,
      "Ġcard": 2506,
      "order": 2507,
      "tau": 2508,
      "Ġalready": 2509,
      "import": 2510,
      "ially": 2511,
      "mp": 2512,
      "Ġdefined": 2513,
      "ĠGen": 2514,
      "~~": 2515,
      "Ġcur": 2516,
      "value": 2517,
      "Ġwon": 2518,
      "ament": 2519,
      "bo": 2520,
      "UT": 2521,
      "rand": 2522,
      "ixed": 2523,
      "ipp": 2524,
      "times": 2525,
      "Ġapplication": 2526,
      "Ġinteg": 2527,
      "Ġcomplet": 2528,
      "ocus": 2529,
      "Ġrespectively": 2530,
      "ources": 2531,
      "Ġvar": 2532,
      "Ġrespons": 2533,
      "Ġdig": 2534,
      "Ġrelations": 2535,
      "........": 2536,
      "App": 2537,
      "Ġple": 2538,
      "ulated": 2539,
      "],[@": 2540,
      "Ġdemon": 2541,
      "fficient": 2542,
      "And": 2543,
      "state": 2544,
      "Ġagre": 2545,
      "Ġcancer": 2546,
      "Ġparticip": 2547,
      "mber": 2548,
      "define": 2549,
      ")(": 2550,
      "ĠOr": 2551,
      "sl": 2552,
      "ĠFig": 2553,
      "atter": 2554,
      "use": 2555,
      "SS": 2556,
      "}$,": 2557,
      "fer": 2558,
      "Ġsure": 2559,
      "ained": 2560,
      "ĠCO": 2561,
      "enn": 2562,
      "ĠĠĠĠĠĠĠĠĠĠĠĠĠĠ": 2563,
      "Ġbehav": 2564,
      "ava": 2565,
      "Ġrequest": 2566,
      "Ġexc": 2567,
      "ĠUniversity": 2568,
      "Ġvoid": 2569,
      "ternal": 2570,
      "medi": 2571,
      "Ġmill": 2572,
      "Ġassess": 2573,
      "Ġprior": 2574,
      "utes": 2575,
      "Ġsite": 2576,
      "date": 2577,
      "Ġapproach": 2578,
      "></": 2579,
      "posed": 2580,
      "\\_": 2581,
      "iter": 2582,
      "plement": 2583,
      "Ġhtt": 2584,
      "àº": 2585,
      "Ġmove": 2586,
      "Ġimmun": 2587,
      "dro": 2588,
      "xim": 2589,
      "delta": 2590,
      "Ġflow": 2591,
      "Ġ$$": 2592,
      "Ġearly": 2593,
      "Ġfore": 2594,
      "ĠThat": 2595,
      "Ġinhib": 2596,
      "omic": 2597,
      "gin": 2598,
      "Ġconsidered": 2599,
      "Ġcult": 2600,
      "ried": 2601,
      "cret": 2602,
      "Ġwrit": 2603,
      "ĉĉĉĉ": 2604,
      "rem": 2605,
      "iles": 2606,
      "ache": 2607,
      "idd": 2608,
      "])": 2609,
      "Ġregard": 2610,
      "CO": 2611,
      "ĠÃ": 2612,
      "oph": 2613,
      "Ġthird": 2614,
      "ĠThen": 2615,
      "Ġteam": 2616,
      "Ġdemonstr": 2617,
      "Ġlimit": 2618,
      "Ġcannot": 2619,
      "Ġshows": 2620,
      "Ġdone": 2621,
      "Ġpredict": 2622,
      "etition": 2623,
      "How": 2624,
      "mathrm": 2625,
      "Ġpoints": 2626,
      "ds": 2627,
      "PE": 2628,
      "ister": 2629,
      "odes": 2630,
      "79": 2631,
      "lied": 2632,
      "Ġsoft": 2633,
      "Ġexam": 2634,
      "pecial": 2635,
      "rec": 2636,
      "Ġaccording": 2637,
      "Ġ=>": 2638,
      "lim": 2639,
      "position": 2640,
      "atus": 2641,
      "Ġmethods": 2642,
      "pm": 2643,
      "![": 2644,
      "ensure": 2645,
      "nu": 2646,
      "Ġdou": 2647,
      "Ġsignificantly": 2648,
      "View": 2649,
      "ules": 2650,
      "oms": 2651,
      "Ġfar": 2652,
      "42": 2653,
      "Ġweight": 2654,
      "Ġ$(": 2655,
      "Ġwomen": 2656,
      "Ġstre": 2657,
      "Ġdrug": 2658,
      "off": 2659,
      "Ġfeel": 2660,
      "olic": 2661,
      "xi": 2662,
      "Ġrelated": 2663,
      "oney": 2664,
      "erences": 2665,
      "minist": 2666,
      "08": 2667,
      "Ġmor": 2668,
      "Ġgenes": 2669,
      "68": 2670,
      "Ġauthor": 2671,
      "html": 2672,
      "most": 2673,
      "Ġtum": 2674,
      "Ġregion": 2675,
      "ĠÂ§": 2676,
      "Ġconsist": 2677,
      "ibr": 2678,
      "41": 2679,
      "Ġque": 2680,
      "On": 2681,
      "Ġfri": 2682,
      "Ġkeep": 2683,
      "}$.": 2684,
      "Ġmodels": 2685,
      "inary": 2686,
      "Ġbelow": 2687,
      "Ġcreate": 2688,
      "Ġthought": 2689,
      "Ġproperty": 2690,
      "ires": 2691,
      "isc": 2692,
      "Ġbase": 2693,
      "ilit": 2694,
      "Ġworking": 2695,
      "side": 2696,
      "file": 2697,
      "icense": 2698,
      "omega": 2699,
      "ĠEuro": 2700,
      "Ġlength": 2701,
      "ume": 2702,
      "Ġcustom": 2703,
      "43": 2704,
      "07": 2705,
      "But": 2706,
      "PS": 2707,
      "inding": 2708,
      "}}\\": 2709,
      "Ġwhy": 2710,
      "Ġlo": 2711,
      "lor": 2712,
      "Ġgene": 2713,
      "Ġservices": 2714,
      "uture": 2715,
      "kn": 2716,
      "Ġcourse": 2717,
      "Ġdeath": 2718,
      "Ar": 2719,
      "He": 2720,
      "\\*": 2721,
      "isf": 2722,
      "Ġadditional": 2723,
      "Ġwar": 2724,
      "'re": 2725,
      "Ġtoget": 2726,
      "Ġlot": 2727,
      "Ġtogether": 2728,
      "Ġincluded": 2729,
      "Ġver": 2730,
      "chie": 2731,
      "bject": 2732,
      "Ref": 2733,
      "Ġloss": 2734,
      "Ġred": 2735,
      "ero": 2736,
      "96": 2737,
      "MS": 2738,
      "Ġthus": 2739,
      "umn": 2740,
      "aff": 2741,
      "53": 2742,
      "rs": 2743,
      "Ġmonths": 2744,
      "Ġtemperature": 2745,
      "span": 2746,
      "'ve": 2747,
      "Ġthough": 2748,
      "Un": 2749,
      "lam": 2750,
      "Ġcompany": 2751,
      "Ġgovernment": 2752,
      "see": 2753,
      "Ġkind": 2754,
      "ught": 2755,
      "infty": 2756,
      "ĠMore": 2757,
      "ĠLe": 2758,
      "Ġdat": 2759,
      "Ġmaking": 2760,
      "ĠAmerican": 2761,
      ".)": 2762,
      "Table": 2763,
      "abor": 2764,
      "group": 2765,
      "anguage": 2766,
      "ãĤ": 2767,
      "IL": 2768,
      "Ġreceived": 2769,
      "ĠMay": 2770,
      "duction": 2771,
      "Ġtiss": 2772,
      "âĢ¦": 2773,
      "hold": 2774,
      "ino": 2775,
      "ession": 2776,
      "verse": 2777,
      "ols": 2778,
      "Ġadded": 2779,
      "________": 2780,
      "IM": 2781,
      "56": 2782,
      "Ġblood": 2783,
      "bit": 2784,
      "nter": 2785,
      "OS": 2786,
      "Ġscre": 2787,
      "Ġann": 2788,
      "psilon": 2789,
      "itch": 2790,
      "98": 2791,
      "Ġpick": 2792,
      "Ġseen": 2793,
      "ocal": 2794,
      "RNA": 2795,
      "code": 2796,
      "Ġintro": 2797,
      "ĠTe": 2798,
      "\");": 2799,
      "')": 2800,
      "Ġspecial": 2801,
      "Ġpaper": 2802,
      "yz": 2803,
      "erc": 2804,
      "Ġaway": 2805,
      "Ġdistribution": 2806,
      "^*": 2807,
      "TR": 2808,
      "atively": 2809,
      "vare": 2810,
      "ynam": 2811,
      "acc": 2812,
      "Ġlines": 2813,
      "Ġanti": 2814,
      "ands": 2815,
      "Ġrather": 2816,
      "âĢĥ": 2817,
      "atal": 2818,
      "Ġenvironment": 2819,
      "ĠAfter": 2820,
      "Ġfund": 2821,
      "ortun": 2822,
      "Ġmom": 2823,
      "Ġdisplay": 2824,
      "Ġinflu": 2825,
      "Ġenough": 2826,
      "78": 2827,
      "eed": 2828,
      "ĠAN": 2829,
      "ones": 2830,
      "ĠAss": 2831,
      "artment": 2832,
      "icult": 2833,
      "ony": 2834,
      "Ġbecome": 2835,
      "76": 2836,
      "Ġansw": 2837,
      "onal": 2838,
      "Ġcause": 2839,
      "width": 2840,
      "irm": 2841,
      "Ġox": 2842,
      "Ġclear": 2843,
      "wise": 2844,
      "Ġalle": 2845,
      "Ġoutput": 2846,
      "Ġsamples": 2847,
      "Ġadj": 2848,
      "US": 2849,
      "ication": 2850,
      "Data": 2851,
      "varepsilon": 2852,
      "Ġmotion": 2853,
      "Ġjob": 2854,
      "head": 2855,
      "ening": 2856,
      "hel": 2857,
      "Ġacross": 2858,
      "ribute": 2859,
      "but": 2860,
      "Ġpatient": 2861,
      "IR": 2862,
      "ai": 2863,
      "Ġut": 2864,
      "Ġbenef": 2865,
      "Ġexperiment": 2866,
      "CL": 2867,
      "Ġfocus": 2868,
      "struct": 2869,
      "Ġmar": 2870,
      "Ġvia": 2871,
      "|\\": 2872,
      "my": 2873,
      "Ġcr": 2874,
      "Ġinput": 2875,
      "Ġclos": 2876,
      "rest": 2877,
      "list": 2878,
      "ideo": 2879,
      "aced": 2880,
      "Ġproced": 2881,
      "https": 2882,
      "with": 2883,
      "Ġtell": 2884,
      "ĠCan": 2885,
      "ĠBy": 2886,
      "../": 2887,
      "Ġparent": 2888,
      "Ġphase": 2889,
      "omy": 2890,
      "ball": 2891,
      "wards": 2892,
      "Ġperformance": 2893,
      "pose": 2894,
      "lementary": 2895,
      "Ġonce": 2896,
      "ĠJoh": 2897,
      "Ġmatter": 2898,
      "mitted": 2899,
      "lying": 2900,
      "bt": 2901,
      "IP": 2902,
      "ĠÏ": 2903,
      "Ġemb": 2904,
      "Ġlikely": 2905,
      "Ġmembers": 2906,
      "Ġtherefore": 2907,
      "ĠThus": 2908,
      "itution": 2909,
      "Ġimplement": 2910,
      "ĠCount": 2911,
      "ober": 2912,
      "ĠIN": 2913,
      "Im": 2914,
      "operator": 2915,
      "vant": 2916,
      "ÑĤ": 2917,
      "Ġdefin": 2918,
      "Re": 2919,
      "Ġpopulation": 2920,
      "Ġmeet": 2921,
      "Ġpan": 2922,
      "\";": 2923,
      "mary": 2924,
      "Ġpattern": 2925,
      "ches": 2926,
      "Ġbit": 2927,
      "rapy": 2928,
      "Ġsample": 2929,
      "ĠInt": 2930,
      "Ġfunctions": 2931,
      "Ð¸": 2932,
      "Ġbreak": 2933,
      "sy": 2934,
      "ĠWith": 2935,
      "Ġremov": 2936,
      "Ġang": 2937,
      "Ġlink": 2938,
      "Ġload": 2939,
      "Ġpolic": 2940,
      "Ġfive": 2941,
      "Ġcompar": 2942,
      "ĠDNA": 2943,
      "une": 2944,
      "Ġexperience": 2945,
      "Ġdam": 2946,
      "Ġcross": 2947,
      "Ġtaken": 2948,
      "Sh": 2949,
      "Ġclinical": 2950,
      "Ġrelationship": 2951,
      "ros": 2952,
      "Ġmiss": 2953,
      "Ġderiv": 2954,
      "Ġill": 2955,
      "Ġfalse": 2956,
      "Ġsimple": 2957,
      "Ġur": 2958,
      "Ġthing": 2959,
      "Ġgrowth": 2960,
      "Ġdefendant": 2961,
      "ĠCD": 2962,
      "inks": 2963,
      "Ġdifference": 2964,
      "aging": 2965,
      "Ġtable": 2966,
      "appa": 2967,
      "obal": 2968,
      "Ġprovides": 2969,
      "function": 2970,
      "Ġachie": 2971,
      "Ġprint": 2972,
      "////": 2973,
      "Ġsequence": 2974,
      "Ġdifficult": 2975,
      "59": 2976,
      "ENT": 2977,
      "Ġey": 2978,
      "ĠEng": 2979,
      "like": 2980,
      "Ġpref": 2981,
      "ains": 2982,
      "ĠOne": 2983,
      "}(\\": 2984,
      "Ġconcer": 2985,
      "Ġblock": 2986,
      "more": 2987,
      "Ġear": 2988,
      "ĠCar": 2989,
      "83": 2990,
      "quad": 2991,
      "Ġacid": 2992,
      "Ġcorrel": 2993,
      "eration": 2994,
      "ĠCor": 2995,
      "Ġinitial": 2996,
      "Ġcoll": 2997,
      "Ġaddress": 2998,
      "based": 2999,
      "path": 3000,
      "Ġmole": 3001,
      "Ġpresence": 3002,
      "ĠMy": 3003,
      "Ġfeatures": 3004,
      "Ġ!=": 3005,
      "izing": 3006,
      "semb": 3007,
      "Ġsatisf": 3008,
      "partial": 3009,
      "Err": 3010,
      "box": 3011,
      "Delta": 3012,
      "Â°": 3013,
      "Ġproduction": 3014,
      "Ġconfig": 3015,
      "Ġmice": 3016,
      "'ll": 3017,
      "cdot": 3018,
      "Ġindex": 3019,
      "Ġimprove": 3020,
      "Ġdetermined": 3021,
      "UN": 3022,
      "Ġ21": 3023,
      "73": 3024,
      "Ġyoung": 3025,
      "operatorname": 3026,
      "ĠPar": 3027,
      "itting": 3028,
      "Ġdiagn": 3029,
      "ĠMed": 3030,
      "Ġmarket": 3031,
      "Ã£": 3032,
      "ĠĠĠĠĠĠĠĠĠĠĠĠĠĠĠĠĠĠĠĠĠĠĠĠĠĠĠĠĠĠĠĠĠĠĠĠĠĠĠĠĠĠĠĠĠĠĠĠ": 3033,
      "raft": 3034,
      "Ġpubl": 3035,
      "54": 3036,
      "81": 3037,
      "dom": 3038,
      "Int": 3039,
      "ached": 3040,
      "uments": 3041,
      "ilities": 3042,
      "Ġviol": 3043,
      "uation": 3044,
      "Ġhistory": 3045,
      "ĠâĢĶ": 3046,
      "Ġcorrect": 3047,
      "Ġparameters": 3048,
      "ĠCont": 3049,
      "Ġcut": 3050,
      "ĠSuppose": 3051,
      "ii": 3052,
      "Ġpercent": 3053,
      "cing": 3054,
      "Ġpast": 3055,
      "itten": 3056,
      "Ġspecies": 3057,
      "document": 3058,
      "utions": 3059,
      "Ġseries": 3060,
      "Ġproperties": 3061,
      "anced": 3062,
      "ĠRep": 3063,
      "Ġothers": 3064,
      "imens": 3065,
      "size": 3066,
      "des": 3067,
      "Ġinvention": 3068,
      "ING": 3069,
      "rc": 3070,
      "hem": 3071,
      "ster": 3072,
      "ronic": 3073,
      "Ġelements": 3074,
      "($": 3075,
      "Ġlove": 3076,
      "Ġsocial": 3077,
      "Ġidentified": 3078,
      "istics": 3079,
      "ply": 3080,
      "Ġcollect": 3081,
      "Ġdoesn": 3082,
      "word": 3083,
      "Ġdire": 3084,
      "sm": 3085,
      "kappa": 3086,
      "]{},": 3087,
      "93": 3088,
      "Ġyet": 3089,
      "ĠCent": 3090,
      "Ġrand": 3091,
      "Ġdistrict": 3092,
      "ulations": 3093,
      "where": 3094,
      "Ġnull": 3095,
      "74": 3096,
      "Ġmakes": 3097,
      "Ġcontact": 3098,
      "Ġactually": 3099,
      "Ġcopy": 3100,
      "Ġquality": 3101,
      "ened": 3102,
      "Ġhom": 3103,
      "Ġfuture": 3104,
      "Ġnear": 3105,
      "94": 3106,
      "Ġoriginal": 3107,
      "]^": 3108,
      "oll": 3109,
      "IV": 3110,
      "Ġoccur": 3111,
      "uild": 3112,
      "Ġsays": 3113,
      "ĠTherefore": 3114,
      "Ġvalid": 3115,
      "include": 3116,
      "Se": 3117,
      "ĠBe": 3118,
      "Ġinvolved": 3119,
      "Ġwa": 3120,
      "Ġpressure": 3121,
      "comes": 3122,
      "Ġsearch": 3123,
      "erred": 3124,
      "Ġprec": 3125,
      "Ġsaf": 3126,
      "astic": 3127,
      "Ã£o": 3128,
      "Ġdocument": 3129,
      "Ġwhole": 3130,
      "Ġprivate": 3131,
      "Ġaccept": 3132,
      "Ġtax": 3133,
      "Ġentire": 3134,
      "Î¹": 3135,
      "ises": 3136,
      "bb": 3137,
      "Ġstates": 3138,
      "Ġchall": 3139,
      "/>": 3140,
      "uly": 3141,
      ")=": 3142,
      "istance": 3143,
      "63": 3144,
      "62": 3145,
      "Ġpair": 3146,
      "Ġnecessary": 3147,
      "Ġsix": 3148,
      "Ġpolit": 3149,
      "ellant": 3150,
      "ĠMar": 3151,
      "clusion": 3152,
      "plate": 3153,
      "ae": 3154,
      "Ġfilm": 3155,
      "ender": 3156,
      "Ġfav": 3157,
      "Ġshall": 3158,
      "ĠAct": 3159,
      "72": 3160,
      "Ġcommunity": 3161,
      "Ġfollows": 3162,
      "Ġelement": 3163,
      "Ġmi": 3164,
      "Ġcame": 3165,
      "ãĢ": 3166,
      "rite": 3167,
      "fra": 3168,
      "Value": 3169,
      "Ġcompl": 3170,
      "Ġdoing": 3171,
      "Ġdepend": 3172,
      "Ġexpected": 3173,
      "Ġsus": 3174,
      "Ġheart": 3175,
      "Ġrandom": 3176,
      "Ġ&&": 3177,
      "Ġreve": 3178,
      "ĠâĢĺ": 3179,
      "Ġpresented": 3180,
      "ults": 3181,
      "Ġ22": 3182,
      "ilt": 3183,
      "Ġadminist": 3184,
      "ips": 3185,
      "Ġtw": 3186,
      "Ġnat": 3187,
      "Ġhyp": 3188,
      "There": 3189,
      "Ġground": 3190,
      "eter": 3191,
      "Ġapplied": 3192,
      "rast": 3193,
      "IF": 3194,
      "ĠTHE": 3195,
      "osph": 3196,
      "Ġplaintiff": 3197,
      "ĠInc": 3198,
      "ĠâĪĴ": 3199,
      "opp": 3200,
      "ĠEurope": 3201,
      "fn": 3202,
      "sim": 3203,
      "Ġ40": 3204,
      "Ġexec": 3205,
      "ography": 3206,
      "uk": 3207,
      "ĠPat": 3208,
      "58": 3209,
      "unt": 3210,
      "Pl": 3211,
      "ided": 3212,
      "Ġdecl": 3213,
      "Ġdidn": 3214,
      "Ġapproxim": 3215,
      "Ġdiv": 3216,
      "ĠSte": 3217,
      "52": 3218,
      "51": 3219,
      "Ġclose": 3220,
      "\".": 3221,
      "Ġrati": 3222,
      "Ġord": 3223,
      "itude": 3224,
      "illed": 3225,
      "Ġhost": 3226,
      "ĠIm": 3227,
      "Ġdetermine": 3228,
      "och": 3229,
      "ounds": 3230,
      "AA": 3231,
      "roph": 3232,
      "iments": 3233,
      "Ġheld": 3234,
      "Ġpage": 3235,
      "orld": 3236,
      "Ġ28": 3237,
      "Ġeffective": 3238,
      "pre": 3239,
      "Ġproblems": 3240,
      "ĠDist": 3241,
      "actions": 3242,
      "Ġnucle": 3243,
      "Ġaverage": 3244,
      "Ġdie": 3245,
      "ME": 3246,
      "Ġtypes": 3247,
      "param": 3248,
      "Ġcountry": 3249,
      "Ġrecogn": 3250,
      "****************": 3251,
      "Ġmoney": 3252,
      "Ġarray": 3253,
      "ĠOF": 3254,
      "px": 3255,
      "ega": 3256,
      "fs": 3257,
      "come": 3258,
      "Ġtook": 3259,
      "Ġproducts": 3260,
      "inally": 3261,
      "Ġappear": 3262,
      "Ġtalk": 3263,
      "Ġchem": 3264,
      "Wh": 3265,
      "ags": 3266,
      ")$.": 3267,
      "ĠAg": 3268,
      "rangle": 3269,
      "array": 3270,
      "ĠMan": 3271,
      "Ġcontroll": 3272,
      "ymb": 3273,
      "ributed": 3274,
      "comp": 3275,
      "Ġstep": 3276,
      "Ġneeds": 3277,
      "ĠAm": 3278,
      "Ġcolor": 3279,
      "ledge": 3280,
      "Ġhouse": 3281,
      "Ġseason": 3282,
      "Ġseem": 3283,
      "Ġcontext": 3284,
      "Ġcontract": 3285,
      "uous": 3286,
      "71": 3287,
      "Ġfood": 3288,
      "Ġdeveloped": 3289,
      "lation": 3290,
      "aled": 3291,
      "Ġhalf": 3292,
      "ĠInst": 3293,
      "Ġantib": 3294,
      "Ġdecision": 3295,
      "pecially": 3296,
      "Ġnight": 3297,
      "}.": 3298,
      "fully": 3299,
      "opl": 3300,
      "Ġda": 3301,
      "With": 3302,
      "Ġ...": 3303,
      "oma": 3304,
      "Ġcorresponding": 3305,
      "No": 3306,
      "ĠPr": 3307,
      "Ġevents": 3308,
      "Ġsil": 3309,
      "Ed": 3310,
      "CD": 3311,
      "print": 3312,
      "OP": 3313,
      "oman": 3314,
      "ites": 3315,
      "orem": 3316,
      "Ġcomplete": 3317,
      "field": 3318,
      "Ġprimary": 3319,
      "*~": 3320,
      "ux": 3321,
      "Ġinstead": 3322,
      "ĠMe": 3323,
      "gl": 3324,
      "Ġ23": 3325,
      "que": 3326,
      "dis": 3327,
      "Ġeduc": 3328,
      "ĠDef": 3329,
      "Ġbasis": 3330,
      "ider": 3331,
      "nder": 3332,
      "Ġess": 3333,
      "ccording": 3334,
      "\\\\": 3335,
      "Ġever": 3336,
      "Ġsem": 3337,
      "Gamma": 3338,
      "}^{\\": 3339,
      "Ġcompos": 3340,
      "ensive": 3341,
      "Ġface": 3342,
      "Ġattempt": 3343,
      "Ġrecent": 3344,
      "));": 3345,
      "ĠDep": 3346,
      "Ġframe": 3347,
      "year": 3348,
      "Ġreference": 3349,
      "Ġdensity": 3350,
      "hing": 3351,
      "Ġissues": 3352,
      "Ġwent": 3353,
      "ĠFurther": 3354,
      "Ġ/*": 3355,
      "Suppose": 3356,
      "tilde": 3357,
      "rial": 3358,
      "Ġdeal": 3359,
      "Ġpain": 3360,
      "Object": 3361,
      "Ġir": 3362,
      "Ġphysical": 3363,
      "ief": 3364,
      "body": 3365,
      "Ġdetect": 3366,
      "CP": 3367,
      "Ġneeded": 3368,
      "Ġecon": 3369,
      "ĠNot": 3370,
      "Ġgas": 3371,
      "ederal": 3372,
      "Ġ:=": 3373,
      "trans": 3374,
      "Ġsurv": 3375,
      "Ġassert": 3376,
      "92": 3377,
      "net": 3378,
      "((": 3379,
      "ĠSim": 3380,
      "ging": 3381,
      "Ã³": 3382,
      "ĠChrist": 3383,
      "Ð½": 3384,
      "Ġtrying": 3385,
      "ls": 3386,
      "Ġblack": 3387,
      "All": 3388,
      "Ġreplace": 3389,
      "Ġlanguage": 3390,
      "61": 3391,
      "ÑĢ": 3392,
      "Ġaccur": 3393,
      "Ġland": 3394,
      "ĠYork": 3395,
      "cell": 3396,
      "Ġmemory": 3397,
      "ĠÂ±": 3398,
      "Ġstatus": 3399,
      "isms": 3400,
      "Ġsex": 3401,
      "ĠRev": 3402,
      "Ġinstall": 3403,
      "down": 3404,
      "Ġconsum": 3405,
      "Ġsoftware": 3406,
      "Ġimpl": 3407,
      "ĠĠĠĠĠĠĠĠĠĠĠĠĠĠĠĠĠ": 3408,
      "hors": 3409,
      "na": 3410,
      "ops": 3411,
      "Ġ----------------": 3412,
      "SD": 3413,
      "icon": 3414,
      "Ind": 3415,
      "Ġincreasing": 3416,
      "By": 3417,
      "nection": 3418,
      "){#": 3419,
      "'d": 3420,
      "do": 3421,
      "culate": 3422,
      "Ġlimited": 3423,
      "Ġalmost": 3424,
      "Ġstatic": 3425,
      "ĠMr": 3426,
      "Ġreduced": 3427,
      "Ġseems": 3428,
      "Ġproteins": 3429,
      "Ġdynam": 3430,
      "Ġmoment": 3431,
      "ï¼": 3432,
      "call": 3433,
      "^[@": 3434,
      "Ġgenerally": 3435,
      "*.": 3436,
      "cm": 3437,
      "ched": 3438,
      "Ġparty": 3439,
      "Ġindust": 3440,
      "OC": 3441,
      "ike": 3442,
      "\\])": 3443,
      "ili": 3444,
      "Ġdate": 3445,
      "Ġpreviously": 3446,
      "ĠOR": 3447,
      "Î¿": 3448,
      "Ġworks": 3449,
      "clus": 3450,
      "Ġitself": 3451,
      "\\,": 3452,
      "earch": 3453,
      ".+": 3454,
      "otic": 3455,
      "\\'": 3456,
      "efore": 3457,
      "supp": 3458,
      "Ġfig": 3459,
      "rown": 3460,
      "Ġautom": 3461,
      "Ġroom": 3462,
      "Ġhours": 3463,
      "Ġgreater": 3464,
      "length": 3465,
      "orph": 3466,
      "Ġmeasured": 3467,
      "overed": 3468,
      "Ñģ": 3469,
      "Ġbegin": 3470,
      "rate": 3471,
      "ĠĠčĊ": 3472,
      "umb": 3473,
      "gor": 3474,
      "arily": 3475,
      "Ġnode": 3476,
      "ĠEn": 3477,
      "osure": 3478,
      "rame": 3479,
      "Ġtold": 3480,
      "Ġmillion": 3481,
      "ĠCity": 3482,
      "ste": 3483,
      "Ġge": 3484,
      "Ġmind": 3485,
      "Ġfem": 3486,
      "MA": 3487,
      "Ġstory": 3488,
      "ĠComp": 3489,
      "Ġ},": 3490,
      "Ġjudgment": 3491,
      "Ġlack": 3492,
      "Ġindependent": 3493,
      "âĢĲ": 3494,
      "urb": 3495,
      "book": 3496,
      "ĠJan": 3497,
      "Ġimpact": 3498,
      "eks": 3499,
      "Ġ[*": 3500,
      "Om": 3501,
      "Ġhydro": 3502,
      "light": 3503,
      "ula": 3504,
      "Ġlooking": 3505,
      "So": 3506,
      "TE": 3507,
      "91": 3508,
      "Ġlayer": 3509,
      "}}$": 3510,
      "leg": 3511,
      "ĠGu": 3512,
      "Par": 3513,
      "ients": 3514,
      "Ġmember": 3515,
      "anks": 3516,
      "igen": 3517,
      "oe": 3518,
      "\\].": 3519,
      "fa": 3520,
      "Ġoperation": 3521,
      "ethyl": 3522,
      "ĠNational": 3523,
      "Ġdifferences": 3524,
      "Ġprinc": 3525,
      "Ġandroid": 3526,
      "Ġprevent": 3527,
      "Ġ(\\[": 3528,
      "sk": 3529,
      "Cs": 3530,
      "Sim": 3531,
      "Ġbelieve": 3532,
      "ĠSystem": 3533,
      "Ġrecomm": 3534,
      "ä¸": 3535,
      "Îµ": 3536,
      "ĠCir": 3537,
      "bon": 3538,
      "Ġexact": 3539,
      "ĠAP": 3540,
      "ĠSup": 3541,
      "Ġderivative": 3542,
      "Ġareas": 3543,
      "At": 3544,
      "ying": 3545,
      "era": 3546,
      "Ġincludes": 3547,
      "Ġstrateg": 3548,
      "Ġ27": 3549,
      "ĠPhys": 3550,
      "Ġ26": 3551,
      "ĠDr": 3552,
      "Ġaffect": 3553,
      "Ġconstant": 3554,
      "ĠMin": 3555,
      "inated": 3556,
      "lig": 3557,
      "Ġbring": 3558,
      "ĠMc": 3559,
      "ĠLicense": 3560,
      "Test": 3561,
      "Ġdirectly": 3562,
      "func": 3563,
      "Ġgetting": 3564,
      "Ġcreated": 3565,
      "Ġ\\<": 3566,
      "Ġanalyz": 3567,
      "wid": 3568,
      "Qu": 3569,
      "ills": 3570,
      "Ġplas": 3571,
      "ecause": 3572,
      "Ġnegative": 3573,
      "Ġimages": 3574,
      "Ġunit": 3575,
      "lin": 3576,
      "Ġmatrix": 3577,
      "met": 3578,
      "Ġwin": 3579,
      "Ġtheory": 3580,
      "mpt": 3581,
      "Ġbackground": 3582,
      "Set": 3583,
      "Ġpersonal": 3584,
      "Ġavoid": 3585,
      "sing": 3586,
      "pret": 3587,
      "Ġmaintain": 3588,
      "Ġcomponents": 3589,
      "ĠSince": 3590,
      "ĠOur": 3591,
      "Ġespecially": 3592,
      "Ad": 3593,
      "Ġrot": 3594,
      "ĠDes": 3595,
      "Ġproposed": 3596,
      "Ġfrequency": 3597,
      "Ġtransfer": 3598,
      "When": 3599,
      "ditional": 3600,
      "rated": 3601,
      "Ġhyper": 3602,
      "Ġbehavior": 3603,
      "Ġfront": 3604,
      "Ã§": 3605,
      "used": 3606,
      "Ġstyle": 3607,
      "Ġdest": 3608,
      "Ġhref": 3609,
      "iction": 3610,
      "ĠQu": 3611,
      "sel": 3612,
      "ĠĠĠĠĠĠĠĠĠĠĠĠĠĠĠĠĠĠĠĠĠĠĠĠĠĠĠ": 3613,
      "Ps": 3614,
      "Ġ/>": 3615,
      "Ġappropri": 3616,
      "gorith": 3617,
      "bor": 3618,
      "void": 3619,
      "}=": 3620,
      "hood": 3621,
      "illi": 3622,
      "amed": 3623,
      "arning": 3624,
      "oles": 3625,
      "urch": 3626,
      "Ġstress": 3627,
      "aged": 3628,
      "Ġclust": 3629,
      "Ġdivid": 3630,
      "Ġenh": 3631,
      "Î¼": 3632,
      "Ġuint": 3633,
      "Ġsett": 3634,
      "den": 3635,
      "------": 3636,
      "Ġwritten": 3637,
      "bre": 3638,
      "Ġexpress": 3639,
      "ission": 3640,
      "hesis": 3641,
      "Ġactive": 3642,
      "Ġoption": 3643,
      "annel": 3644,
      "ĠPart": 3645,
      "Ġmach": 3646,
      "enced": 3647,
      "vere": 3648,
      "iven": 3649,
      "pen": 3650,
      "Ġ?": 3651,
      "Ġsimply": 3652,
      "ĠDav": 3653,
      "Text": 3654,
      "Omega": 3655,
      "ospital": 3656,
      "from": 3657,
      "Ġfall": 3658,
      "Ġrelative": 3659,
      "Ġrelease": 3660,
      "Ġaccom": 3661,
      "Ġstri": 3662,
      "ĠAp": 3663,
      "Ġdevices": 3664,
      "Ġcomponent": 3665,
      "point": 3666,
      "rief": 3667,
      "cho": 3668,
      "dev": 3669,
      "Ġcry": 3670,
      "ĠReg": 3671,
      "Ġquite": 3672,
      "cy": 3673,
      "Ġselected": 3674,
      "Ġanything": 3675,
      "ĠCounty": 3676,
      "Ġwords": 3677,
      "}_{\\": 3678,
      "ĠGe": 3679,
      "Ġmedia": 3680,
      "Ġcred": 3681,
      "icles": 3682,
      "OO": 3683,
      "bran": 3684,
      "Ġhttp": 3685,
      "vious": 3686,
      "Ġstarted": 3687,
      "Ġfollowed": 3688,
      "Ġmedical": 3689,
      "ese": 3690,
      "hers": 3691,
      "Ġmatch": 3692,
      "Ġappeal": 3693,
      "Ġlive": 3694,
      "ĠII": 3695,
      "Ġmap": 3696,
      "ĠDo": 3697,
      "Ġsal": 3698,
      "Ġ(\\": 3699,
      "Ġlonger": 3700,
      "tic": 3701,
      "Ġwrite": 3702,
      "ogle": 3703,
      "iddle": 3704,
      "oat": 3705,
      "ufact": 3706,
      "Ġpack": 3707,
      "Ġasked": 3708,
      "Ġcity": 3709,
      "max": 3710,
      "Ġstudents": 3711,
      "oding": 3712,
      "ener": 3713,
      "Ġvideo": 3714,
      "Ġquestions": 3715,
      "Ġratio": 3716,
      "Ġtraining": 3717,
      "Ġidea": 3718,
      "Ġprobably": 3719,
      "Ġconstruct": 3720,
      "Ġquick": 3721,
      ")$,": 3722,
      "ytes": 3723,
      "002": 3724,
      "Ġnothing": 3725,
      "Ġ[**": 3726,
      "Ġsurg": 3727,
      "Ġpret": 3728,
      "My": 3729,
      "['": 3730,
      "Ġwebs": 3731,
      "Ġtissue": 3732,
      "Ġresid": 3733,
      "^{(": 3734,
      "Not": 3735,
      "top": 3736,
      "Ġtoday": 3737,
      "ĠArt": 3738,
      "Ġonline": 3739,
      "irth": 3740,
      "Ġveh": 3741,
      "Ġtaking": 3742,
      "Î½": 3743,
      "Ġpolicy": 3744,
      "Ġextra": 3745,
      "Ġtele": 3746,
      "cast": 3747,
      "ĠHere": 3748,
      "Ġsubstant": 3749,
      "File": 3750,
      "Ġproceed": 3751,
      "Ġparticularly": 3752,
      "Ġsufficient": 3753,
      "non": 3754,
      "TP": 3755,
      "urg": 3756,
      "Ġ60": 3757,
      "Ġtumor": 3758,
      "ĠJohn": 3759,
      "Ġwindow": 3760,
      "df": 3761,
      "Ġpurch": 3762,
      "Ġidentify": 3763,
      "ils": 3764,
      "Ġrights": 3765,
      "Ġaltern": 3766,
      "ĠRec": 3767,
      "ana": 3768,
      "elling": 3769,
      "imate": 3770,
      "};": 3771,
      "link": 3772,
      "Ġisol": 3773,
      "Ġability": 3774,
      "Ġbroad": 3775,
      "Ġrecept": 3776,
      "Ġetc": 3777,
      "asons": 3778,
      "Ġfoo": 3779,
      "Get": 3780,
      "Ġphen": 3781,
      "Ġperf": 3782,
      "uary": 3783,
      "ĠIS": 3784,
      "Ġelectro": 3785,
      "De": 3786,
      "ML": 3787,
      "Ġax": 3788,
      "Ġdouble": 3789,
      "Ġdefault": 3790,
      "Error": 3791,
      "Ġpublished": 3792,
      "Ġhighly": 3793,
      "^+": 3794,
      "iated": 3795,
      "varphi": 3796,
      "ensuremath": 3797,
      "Ġcapac": 3798,
      "Ġround": 3799,
      "Ġlarger": 3800,
      "Mod": 3801,
      "ĠOct": 3802,
      "Ġjo": 3803,
      "Ġful": 3804,
      "GF": 3805,
      "Ġcomes": 3806,
      "Ġfeature": 3807,
      "Ġopin": 3808,
      "Ġinside": 3809,
      "ague": 3810,
      "psi": 3811,
      "exp": 3812,
      "Ġexpressed": 3813,
      "Ġnumbers": 3814,
      "Ġtreated": 3815,
      "Ġexperiments": 3816,
      "Ġalthough": 3817,
      "Ġeasy": 3818,
      "Ġdesigned": 3819,
      "Ġforce": 3820,
      "ĠĠĠĠĠĠĠĠĠĠĠĠĠĠĠĠĠĠĠĠ": 3821,
      "chi": 3822,
      "that": 3823,
      "Ã¼": 3824,
      "Ġbur": 3825,
      "ĠST": 3826,
      "vis": 3827,
      "BS": 3828,
      "aches": 3829,
      "Ġauthors": 3830,
      "Ġengine": 3831,
      "Ġfoot": 3832,
      "rote": 3833,
      "*-": 3834,
      "elt": 3835,
      "Ġclaims": 3836,
      "ha": 3837,
      "Ġcyt": 3838,
      "Ġnote": 3839,
      "Ġlearn": 3840,
      "ards": 3841,
      "ager": 3842,
      "Ġband": 3843,
      "vention": 3844,
      ".'": 3845,
      "term": 3846,
      "Ġdirection": 3847,
      ")^": 3848,
      "ĠIntern": 3849,
      "Ġcontaining": 3850,
      "\"/>": 3851,
      "Ġnatural": 3852,
      "ĠBo": 3853,
      "Ġweeks": 3854,
      "mar": 3855,
      "PP": 3856,
      "script": 3857,
      "public": 3858,
      "ĠPres": 3859,
      "Ġmode": 3860,
      "Ġvariable": 3861,
      "uth": 3862,
      "ersion": 3863,
      "ada": 3864,
      "rupt": 3865,
      "Ġarticle": 3866,
      "cap": 3867,
      "ĠString": 3868,
      "TH": 3869,
      "encies": 3870,
      "Ġminutes": 3871,
      "().": 3872,
      "Ġstra": 3873,
      "Ġproduced": 3874,
      "eful": 3875,
      "Des": 3876,
      "orage": 3877,
      "Ġmanagement": 3878,
      "Ġrepe": 3879,
      "Ġanswer": 3880,
      "Ġgrant": 3881,
      "Ġparameter": 3882,
      "bm": 3883,
      "ottom": 3884,
      "ze": 3885,
      "Or": 3886,
      "men": 3887,
      "rightarrow": 3888,
      "Ã¤": 3889,
      "Ġfixed": 3890,
      "Ġsynt": 3891,
      "eline": 3892,
      "Ġcamp": 3893,
      "Ġdefine": 3894,
      "Ġestablished": 3895,
      "Ġagreement": 3896,
      "Ġlabel": 3897,
      "True": 3898,
      "Ġknowledge": 3899,
      "Ġsense": 3900,
      "ĠGerm": 3901,
      "Ġeffort": 3902,
      ")-": 3903,
      "Ġinstance": 3904,
      "HO": 3905,
      "Ġste": 3906,
      "Ġdegree": 3907,
      "IO": 3908,
      "Ġpo": 3909,
      "Ġ29": 3910,
      "pid": 3911,
      "ancial": 3912,
      "ius": 3913,
      "abase": 3914,
      "aves": 3915,
      "ĠSch": 3916,
      "obile": 3917,
      "rang": 3918,
      "ĠAug": 3919,
      "Ġpromot": 3920,
      "Ġstage": 3921,
      "selves": 3922,
      "Ġrunning": 3923,
      "ervice": 3924,
      "Ġattack": 3925,
      "},\\": 3926,
      "Ġdistance": 3927,
      "apan": 3928,
      "Ġvers": 3929,
      "color": 3930,
      "Ġoutside": 3931,
      "itation": 3932,
      "ULL": 3933,
      "lease": 3934,
      "wide": 3935,
      "Ġstim": 3936,
      "Ġ2012": 3937,
      "js": 3938,
      "######": 3939,
      "vey": 3940,
      "user": 3941,
      "Ġexists": 3942,
      "Ġusers": 3943,
      "Cal": 3944,
      "**(-": 3945,
      "Ġtechnology": 3946,
      "Ġmagnetic": 3947,
      "izes": 3948,
      "Ġprime": 3949,
      "Ġeffic": 3950,
      "ĠGod": 3951,
      "======": 3952,
      "Ġgenerated": 3953,
      "Ġanim": 3954,
      "Ġrow": 3955,
      "Ġcompet": 3956,
      "Ġformation": 3957,
      "epsilon": 3958,
      "Ġindividuals": 3959,
      "frak": 3960,
      "ĠApr": 3961,
      "geq": 3962,
      "Ġcontains": 3963,
      "Ġbecame": 3964,
      "SP": 3965,
      "lier": 3966,
      "ĠAlthough": 3967,
      "Ġuseful": 3968,
      "Ġsites": 3969,
      "Ġusually": 3970,
      "Ġreflect": 3971,
      "lay": 3972,
      "Ġexcept": 3973,
      "Ġ<<": 3974,
      "Ġfavor": 3975,
      "Ġhor": 3976,
      "nsel": 3977,
      "Ġult": 3978,
      "tem": 3979,
      "init": 3980,
      "ĠDistrict": 3981,
      "Ġâ": 3982,
      "References": 3983,
      "bold": 3984,
      "Ġregul": 3985,
      "ÏĦ": 3986,
      "Ġprep": 3987,
      "Ġmention": 3988,
      "Ġ((": 3989,
      "CA": 3990,
      "spec": 3991,
      "EP": 3992,
      "Ġpurpose": 3993,
      "From": 3994,
      "ube": 3995,
      "error": 3996,
      "Ġcharge": 3997,
      "active": 3998,
      "Ġspeed": 3999,
      "Ġlocation": 4000,
      "aries": 4001,
      "ental": 4002,
      "ishing": 4003,
      "Ġwhose": 4004,
      "Ġtravel": 4005,
      "bra": 4006,
      "ĠĠĠĠĠĠĠĠĠĠĠĠĠĠĠĠĠĠĠĠĠ": 4007,
      "Ġvs": 4008,
      "Ġlocated": 4009,
      "Ġfindings": 4010,
      "Ġ(**": 4011,
      "aving": 4012,
      "Ġmulti": 4013,
      "inate": 4014,
      "Ġpractice": 4015,
      "Ġsuit": 4016,
      "Ġacqu": 4017,
      "Sec": 4018,
      "ĠPer": 4019,
      "change": 4020,
      "');": 4021,
      "Ġsomeone": 4022,
      "ners": 4023,
      "Ġjur": 4024,
      "Ġsqu": 4025,
      "Ġvariables": 4026,
      "aining": 4027,
      "Ġplayers": 4028,
      "itro": 4029,
      "lock": 4030,
      "Ġaud": 4031,
      "ĠPa": 4032,
      "ocation": 4033,
      "estern": 4034,
      "Ġfun": 4035,
      "``": 4036,
      "pite": 4037,
      "itute": 4038,
      "Ġmanufact": 4039,
      "ĠWhile": 4040,
      "ming": 4041,
      "ĠJune": 4042,
      "Ġregular": 4043,
      "Ġfib": 4044,
      "Ġformer": 4045,
      "ĠFirst": 4046,
      "ĠJud": 4047,
      "Ġlat": 4048,
      "]:": 4049,
      "ĠĠĠĠĠĠĠĠĠĠĠĠĠĠĠĠĠĠ": 4050,
      "perty": 4051,
      "argin": 4052,
      "ellow": 4053,
      "Ġallows": 4054,
      "Ġbad": 4055,
      "Ġrates": 4056,
      "ifically": 4057,
      "Def": 4058,
      "ĠId": 4059,
      "vision": 4060,
      "Ġconcentration": 4061,
      "reme": 4062,
      "Ġlinear": 4063,
      "su": 4064,
      "Ġconnect": 4065,
      "/(": 4066,
      "^âĪĴ": 4067,
      "db": 4068,
      "Ġscale": 4069,
      "ĠSer": 4070,
      "mathfrak": 4071,
      "Ġopportun": 4072,
      "iciency": 4073,
      "003": 4074,
      "Ġcaused": 4075,
      "map": 4076,
      "aneous": 4077,
      "ibrary": 4078,
      "Ġcompan": 4079,
      "[^": 4080,
      "inct": 4081,
      "Ġgraph": 4082,
      "EL": 4083,
      "Ġsupported": 4084,
      "Ġessential": 4085,
      "Ġmessage": 4086,
      "ptr": 4087,
      "rum": 4088,
      "Ġliqu": 4089,
      "MO": 4090,
      "ĠAust": 4091,
      "*]{}": 4092,
      "was": 4093,
      "Ġpie": 4094,
      "ĠSouth": 4095,
      "Ġdiscl": 4096,
      "Ġrequires": 4097,
      "Ġwhite": 4098,
      "Ġnature": 4099,
      "Ġdim": 4100,
      "Ġindicated": 4101,
      "pace": 4102,
      "Ġwall": 4103,
      "index": 4104,
      "ĠGo": 4105,
      "Ġwriting": 4106,
      "Ġstar": 4107,
      "Ġheat": 4108,
      "Ġnumer": 4109,
      "Ġfire": 4110,
      "ĠMarch": 4111,
      "lib": 4112,
      "Ġ2013": 4113,
      "Ġstreng": 4114,
      "Ġfailure": 4115,
      "ĠVal": 4116,
      "prime": 4117,
      "static": 4118,
      "ĠHis": 4119,
      "Ġlinks": 4120,
      "isions": 4121,
      "etilde": 4122,
      "widetilde": 4123,
      "ĠSept": 4124,
      "num": 4125,
      "Ġliter": 4126,
      "Ġphosph": 4127,
      "erve": 4128,
      "State": 4129,
      "rier": 4130,
      "ĠNorth": 4131,
      "ned": 4132,
      "Ġargument": 4133,
      "Ġcircuit": 4134,
      "erson": 4135,
      "Ġdetails": 4136,
      "material": 4137,
      "Ġappropriate": 4138,
      "SY": 4139,
      "ham": 4140,
      "char": 4141,
      "Ġimmedi": 4142,
      "Ġcenter": 4143,
      "Ġbinding": 4144,
      "lege": 4145,
      "Ġmit": 4146,
      "Ġfiled": 4147,
      "Ġcentral": 4148,
      "Ġtitle": 4149,
      "Ġalgorith": 4150,
      "gram": 4151,
      "len": 4152,
      "pped": 4153,
      "Ġrestrict": 4154,
      "({\\": 4155,
      "Ġglobal": 4156,
      "ĠGeneral": 4157,
      "Ġdefinition": 4158,
      "Ġinterpret": 4159,
      "Ġstatement": 4160,
      "iot": 4161,
      "ĠSw": 4162,
      "MR": 4163,
      "Ġtransition": 4164,
      "Ġinfection": 4165,
      "Ġwidth": 4166,
      "ĠSm": 4167,
      "================================": 4168,
      "Ġdraw": 4169,
      "Ġbuilding": 4170,
      "rag": 4171,
      "False": 4172,
      "Ġregions": 4173,
      "Ġ||": 4174,
      "asis": 4175,
      "Ġhope": 4176,
      "Ġunits": 4177,
      "Ġles": 4178,
      "known": 4179,
      "ĠHar": 4180,
      "ĠWorld": 4181,
      "LA": 4182,
      "Ġfailed": 4183,
      "Ġpolym": 4184,
      "ians": 4185,
      "itors": 4186,
      "Ġdivided": 4187,
      "Ġsecur": 4188,
      "Ġsympt": 4189,
      "Ġgr": 4190,
      "Ġsn": 4191,
      "Ġrecently": 4192,
      "Ġunique": 4193,
      "andid": 4194,
      "lish": 4195,
      "cember": 4196,
      "ĠĠĠĠĠĠĠĠĠĠĠĠĠĠĠĠĠĠĠĠĠĠ": 4197,
      "Ġrule": 4198,
      "Ð¾Ð": 4199,
      "HT": 4200,
      "Ġsche": 4201,
      "Ġweb": 4202,
      "Ġshare": 4203,
      "style": 4204,
      "uel": 4205,
      "Ġcontrast": 4206,
      "Ġmusic": 4207,
      "ĠMoreover": 4208,
      "Ġfeed": 4209,
      "ama": 4210,
      "Ġcomputer": 4211,
      "\"},": 4212,
      "Ġvolume": 4213,
      "Ġmetab": 4214,
      "Ġbox": 4215,
      "CS": 4216,
      "hand": 4217,
      "\\<": 4218,
      "Ġcurrently": 4219,
      "Ġsubsequ": 4220,
      "Ġgives": 4221,
      "._": 4222,
      "ffer": 4223,
      "Ġfiles": 4224,
      "uted": 4225,
      "Ġfast": 4226,
      "overline": 4227,
      "cin": 4228,
      "Ġinteraction": 4229,
      "pling": 4230,
      "ĠÎ¼": 4231,
      "ĠSection": 4232,
      "Ġnotice": 4233,
      "Ġhimself": 4234,
      "Ġstatist": 4235,
      "Ġtransport": 4236,
      "Ġ2011": 4237,
      "Ġrelevant": 4238,
      "section": 4239,
      "bum": 4240,
      "joy": 4241,
      "item": 4242,
      "atives": 4243,
      "Ġcapt": 4244,
      "ĠAf": 4245,
      "atform": 4246,
      "Ġresulting": 4247,
      "ken": 4248,
      "otype": 4249,
      "Ġforward": 4250,
      "Ġ2014": 4251,
      "Ġconcept": 4252,
      "plify": 4253,
      "Ġwrong": 4254,
      "PD": 4255,
      "ĠEd": 4256,
      "ĠChe": 4257,
      "}}_": 4258,
      "Ġfriend": 4259,
      "Exp": 4260,
      "diction": 4261,
      "Ġreaction": 4262,
      "ĠJanuary": 4263,
      "ĠPol": 4264,
      "illing": 4265,
      "ffect": 4266,
      "Ġslow": 4267,
      "Ġproof": 4268,
      "Ġ2010": 4269,
      "Ġpoly": 4270,
      "Ġcover": 4271,
      "000000": 4272,
      "Ġbrain": 4273,
      "Ġhot": 4274,
      "cale": 4275,
      "Ġpul": 4276,
      "Ġtrack": 4277,
      "Ġpoor": 4278,
      "ĠCou": 4279,
      "\\],": 4280,
      "iet": 4281,
      "related": 4282,
      "Ġformed": 4283,
      "Ġtherapy": 4284,
      "Ġprotect": 4285,
      "Ġyield": 4286,
      "duc": 4287,
      "Ġoffer": 4288,
      "Ġfit": 4289,
      "Ġpetition": 4290,
      "alle": 4291,
      "Ġfields": 4292,
      "encing": 4293,
      "irmed": 4294,
      "Ġequal": 4295,
      "rew": 4296,
      "ameter": 4297,
      "Ġserver": 4298,
      "EX": 4299,
      "Ġapplications": 4300,
      "à¶": 4301,
      "ĠApril": 4302,
      "Ġprocedure": 4303,
      "py": 4304,
      "Ġaim": 4305,
      "ĠMod": 4306,
      "Ġsyn": 4307,
      "ĠSome": 4308,
      "Ġoptions": 4309,
      ")).": 4310,
      "Ġexerc": 4311,
      "ãĥ": 4312,
      "langle": 4313,
      "gra": 4314,
      "Ġcalculated": 4315,
      "Ġcritical": 4316,
      "MM": 4317,
      "Ġextract": 4318,
      "Ġball": 4319,
      "ĠJuly": 4320,
      "Ġallowed": 4321,
      "Ġgames": 4322,
      "ocks": 4323,
      "DR": 4324,
      "upper": 4325,
      "ris": 4326,
      "ancy": 4327,
      "Ġmis": 4328,
      "unch": 4329,
      "Ġwebsite": 4330,
      "rations": 4331,
      "ded": 4332,
      "Ġlate": 4333,
      "aker": 4334,
      "Ġ31": 4335,
      "Ġ///": 4336,
      "oke": 4337,
      "Ġmother": 4338,
      "Ġtakes": 4339,
      "../../": 4340,
      "Ġdetected": 4341,
      "ele": 4342,
      "athe": 4343,
      "oun": 4344,
      "Ġconnected": 4345,
      "Ġtried": 4346,
      "urance": 4347,
      "Ġexhib": 4348,
      "Supp": 4349,
      "Ġprocesses": 4350,
      "ATE": 4351,
      "Ġparts": 4352,
      "Ġmaximum": 4353,
      "Ġanalys": 4354,
      "Ġleading": 4355,
      "Ġcircum": 4356,
      "aling": 4357,
      "Ġpsy": 4358,
      "Ġpeak": 4359,
      "Ġadjust": 4360,
      "Ġ($": 4361,
      "Ġtransform": 4362,
      "aching": 4363,
      "ees": 4364,
      "cluded": 4365,
      "Ġmaterials": 4366,
      "Ġten": 4367,
      "Ġfinding": 4368,
      "Ġcontinue": 4369,
      "Ġ2016": 4370,
      "mic": 4371,
      "Ġreading": 4372,
      "Ġ__": 4373,
      "ĠTra": 4374,
      "Ġeverything": 4375,
      "oud": 4376,
      "ĠStud": 4377,
      "Ġsmaller": 4378,
      "Ġmechanism": 4379,
      "Ġconsequ": 4380,
      "Ġapply": 4381,
      "orb": 4382,
      "ĠIL": 4383,
      "ĠJapan": 4384,
      "Ġsets": 4385,
      "Ġpolice": 4386,
      "Ġsort": 4387,
      "ĠCons": 4388,
      "orney": 4389,
      "circ": 4390,
      "node": 4391,
      "Ġpict": 4392,
      "input": 4393,
      "Ġqual": 4394,
      "Ġscore": 4395,
      "Ġoverall": 4396,
      "Ġchoice": 4397,
      "Ġwalk": 4398,
      "icip": 4399,
      "Ġzero": 4400,
      "Ġcountries": 4401,
      "ĠPe": 4402,
      "Ġexperi": 4403,
      "ĠFran": 4404,
      "Ġofficial": 4405,
      "Ġutil": 4406,
      "oz": 4407,
      "Ġstay": 4408,
      "Ġuses": 4409,
      "aur": 4410,
      "Ġ111": 4411,
      "ocol": 4412,
      "bin": 4413,
      "onic": 4414,
      "Ġequival": 4415,
      "*(": 4416,
      "ĠTrans": 4417,
      "Ġvector": 4418,
      "Ġprofess": 4419,
      "Ïģ": 4420,
      "Ġlearning": 4421,
      "Ġreduce": 4422,
      "free": 4423,
      "Ġnames": 4424,
      "Ġsaw": 4425,
      "Ġreduction": 4426,
      "Ġ2015": 4427,
      "Ġprocessing": 4428,
      "ĠAb": 4429,
      "Ġnovel": 4430,
      "One": 4431,
      "XX": 4432,
      "ĠFrom": 4433,
      "Ġ35": 4434,
      "Ġalone": 4435,
      "Ġsound": 4436,
      "Ġstated": 4437,
      "Ġmembran": 4438,
      "Ġstructures": 4439,
      "iate": 4440,
      "Ġheav": 4441,
      "ĠWar": 4442,
      "Ġheight": 4443,
      "Ġuns": 4444,
      "]\\],": 4445,
      "cos": 4446,
      "ĠRuss": 4447,
      "hest": 4448,
      "DA": 4449,
      "Lambda": 4450,
      "ĠDecember": 4451,
      "Ġbirth": 4452,
      "Ġcolumn": 4453,
      "Ġbegan": 4454,
      "oses": 4455,
      "That": 4456,
      "overy": 4457,
      "Ġproduce": 4458,
      "Ġvolt": 4459,
      ".$$": 4460,
      "Ġcam": 4461,
      "Ġdetection": 4462,
      "Ġdemonstrated": 4463,
      "ĠNow": 4464,
      "PR": 4465,
      "SC": 4466,
      "ldots": 4467,
      "subset": 4468,
      "?\"": 4469,
      "Ġliving": 4470,
      "ovember": 4471,
      "ĠOctober": 4472,
      "uns": 4473,
      "Context": 4474,
      "ĠData": 4475,
      "Ġequation": 4476,
      "Ġculture": 4477,
      "FL": 4478,
      "Ġcommand": 4479,
      "Ġtim": 4480,
      "ĠAugust": 4481,
      "Ġ32": 4482,
      "space": 4483,
      "Ġlost": 4484,
      "Ġconnection": 4485,
      "Ġsoon": 4486,
      "Ġactivation": 4487,
      ".\\": 4488,
      "band": 4489,
      "());": 4490,
      "Ġtool": 4491,
      "Ġcollection": 4492,
      "Solve": 4493,
      "Ġinform": 4494,
      "Ġrelatively": 4495,
      "Ġeasily": 4496,
      "Ġjury": 4497,
      "Ġlegal": 4498,
      "Ġreplacement": 4499,
      "Ġparties": 4500,
      "Ġfinancial": 4501,
      "pan": 4502,
      "Exception": 4503,
      "sembly": 4504,
      "Ġfunctional": 4505,
      "gu": 4506,
      "ĠCommission": 4507,
      "Ġisn": 4508,
      "Ġcardi": 4509,
      "ĠSeptember": 4510,
      "EM": 4511,
      "cs": 4512,
      "unk": 4513,
      "iques": 4514,
      "Ġindicate": 4515,
      "Ġcharacteristics": 4516,
      "Ġways": 4517,
      "}}(": 4518,
      "ĠHealth": 4519,
      "Ġ2009": 4520,
      "Of": 4521,
      "PA": 4522,
      "Ġdu": 4523,
      "Inf": 4524,
      "kern": 4525,
      "Ġshowing": 4526,
      "ĠAccording": 4527,
      "ĠFeb": 4528,
      "ĠChina": 4529,
      "Ġappears": 4530,
      "ĠDepartment": 4531,
      "istry": 4532,
      "Ġmetal": 4533,
      "CON": 4534,
      "':": 4535,
      "ĠBar": 4536,
      "Ġreasons": 4537,
      "Ġneut": 4538,
      "apter": 4539,
      "arest": 4540,
      "Ġinjury": 4541,
      "ociety": 4542,
      "Ġreleased": 4543,
      "Ġcycl": 4544,
      ")**": 4545,
      "Ġcert": 4546,
      "Ġhar": 4547,
      "la": 4548,
      "\"><": 4549,
      "Ġsetting": 4550,
      "Ġfair": 4551,
      "msg": 4552,
      "Ġintern": 4553,
      "Ġmount": 4554,
      "count": 4555,
      "Ġ\\,": 4556,
      "zz": 4557,
      "New": 4558,
      "Ġnational": 4559,
      "Ġorg": 4560,
      "Ġdeep": 4561,
      "lo": 4562,
      "Ġinternal": 4563,
      "which": 4564,
      "imensional": 4565,
      "ournal": 4566,
      "font": 4567,
      "write": 4568,
      "Ġattention": 4569,
      "Ġperfect": 4570,
      "Ġcompletely": 4571,
      "}}}": 4572,
      "\",\"": 4573,
      "pol": 4574,
      "Ġadvant": 4575,
      "gest": 4576,
      "Ġbuilt": 4577,
      "';": 4578,
      "Ġjuris": 4579,
      "atin": 4580,
      "duce": 4581,
      "Ġwanted": 4582,
      "BC": 4583,
      "Key": 4584,
      "ĠJust": 4585,
      "tee": 4586,
      "Big": 4587,
      "Ġportion": 4588,
      "raint": 4589,
      "Ġopinion": 4590,
      "Sc": 4591,
      "Ġcombination": 4592,
      "long": 4593,
      "true": 4594,
      "Ġsecurity": 4595,
      "/(-": 4596,
      "Ġaspect": 4597,
      "EE": 4598,
      "Ġconvention": 4599,
      "xy": 4600,
      "Ġgir": 4601,
      "urity": 4602,
      "fil": 4603,
      "Ġago": 4604,
      "**)": 4605,
      "UL": 4606,
      "Ġplant": 4607,
      "Ġfa": 4608,
      "ĠRNA": 4609,
      "Ġplasma": 4610,
      "&\\": 4611,
      "ĠUSA": 4612,
      "mark": 4613,
      "ille": 4614,
      "ĠNe": 4615,
      "Ġrepl": 4616,
      "Ġobjects": 4617,
      "otal": 4618,
      "Ct": 4619,
      "aily": 4620,
      "stream": 4621,
      "................": 4622,
      "Ġcarried": 4623,
      "Field": 4624,
      "*)": 4625,
      "Ġfederal": 4626,
      "coming": 4627,
      "ĠPresident": 4628,
      "reen": 4629,
      "odies": 4630,
      "lt": 4631,
      "Ġtrust": 4632,
      "Ġclearly": 4633,
      "Ġrevealed": 4634,
      "Ġactual": 4635,
      "Ġ2017": 4636,
      "Ġsubstr": 4637,
      "Ġletters": 4638,
      "abled": 4639,
      "())": 4640,
      ")/(-": 4641,
      "Ġneigh": 4642,
      "Ġincor": 4643,
      ".](": 4644,
      "Ġgave": 4645,
      "erved": 4646,
      "Ġinfluence": 4647,
      "inst": 4648,
      "Ġpen": 4649,
      "Ġled": 4650,
      "Ġremains": 4651,
      "ĠTable": 4652,
      "Ġvent": 4653,
      "Ġcounsel": 4654,
      "pir": 4655,
      "(),": 4656,
      "Ġbehind": 4657,
      "Ġactivities": 4658,
      "Ġseparate": 4659,
      "Ġinduced": 4660,
      "Ġenjoy": 4661,
      "Ġdark": 4662,
      "âĢ¢": 4663,
      "enses": 4664,
      "ĠDavid": 4665,
      "anger": 4666,
      "ports": 4667,
      "Ġinterface": 4668,
      "Ġliquid": 4669,
      "005": 4670,
      "Ġprop": 4671,
      "Ġcontribut": 4672,
      "Ġtherm": 4673,
      "Ġdeb": 4674,
      "Ġampl": 4675,
      "Ġcommunication": 4676,
      "haps": 4677,
      "ett": 4678,
      "ira": 4679,
      "Ġarch": 4680,
      "Time": 4681,
      "ride": 4682,
      "Ġcomparison": 4683,
      "mail": 4684,
      "ado": 4685,
      "Ġitems": 4686,
      "Ġchalleng": 4687,
      "Equ": 4688,
      "ĠĠĠĠĠĠĠĠĠĠĠĠĠĠĠĠĠĠĠĠĠĠĠĠĠ": 4689,
      "ulate": 4690,
      "ographic": 4691,
      "pat": 4692,
      "NS": 4693,
      "oring": 4694,
      "Ġ->": 4695,
      "Ġsong": 4696,
      "board": 4697,
      "lick": 4698,
      "Ġ2008": 4699,
      "Ġsolid": 4700,
      ")?": 4701,
      "Ġbacter": 4702,
      "Ġparticipants": 4703,
      "symb": 4704,
      "Ġbill": 4705,
      "Ġconsistent": 4706,
      "ibly": 4707,
      "Ġoffice": 4708,
      "Ġnews": 4709,
      "info": 4710,
      "Ġdigit": 4711,
      "Ġdescription": 4712,
      "Ġstop": 4713,
      "']": 4714,
      "Ġeducation": 4715,
      "eterm": 4716,
      "pper": 4717,
      "Add": 4718,
      "ridge": 4719,
      "Ġresistance": 4720,
      "Ġmedium": 4721,
      "jection": 4722,
      "Ġmag": 4723,
      "%,": 4724,
      "Ġnorm": 4725,
      "elle": 4726,
      "Ġ95": 4727,
      "Ġcosts": 4728,
      "Ġfully": 4729,
      "Ġdro": 4730,
      "plit": 4731,
      "Ġtests": 4732,
      "ĠBrit": 4733,
      "Ġ80": 4734,
      "Ġexperimental": 4735,
      "Item": 4736,
      "Ġchanged": 4737,
      "ivil": 4738,
      "Ġsolutions": 4739,
      "Ġhearing": 4740,
      "Ġexposure": 4741,
      "Ġstore": 4742,
      "Ġelectron": 4743,
      "Class": 4744,
      "ford": 4745,
      "oon": 4746,
      "Ġclient": 4747,
      "[\\": 4748,
      "Ġvict": 4749,
      "Ġcompr": 4750,
      "Ġpretty": 4751,
      "ĠSchool": 4752,
      "CG": 4753,
      "bi": 4754,
      "Ġcontinuous": 4755,
      "Ġleave": 4756,
      "Ġeyes": 4757,
      "Ġupper": 4758,
      "Ġfine": 4759,
      "cules": 4760,
      "Ġcool": 4761,
      "option": 4762,
      "Ġconducted": 4763,
      "Ġunderstanding": 4764,
      "Ġfilter": 4765,
      "ares": 4766,
      "Ġcore": 4767,
      "ĠFurthermore": 4768,
      "SA": 4769,
      "undred": 4770,
      "aa": 4771,
      "Ġ90": 4772,
      "Ġthemselves": 4773,
      "Ã¶": 4774,
      "Ġvehicle": 4775,
      "PO": 4776,
      "Ġnil": 4777,
      "sens": 4778,
      "{{": 4779,
      "ĠGl": 4780,
      "Ġsituation": 4781,
      "ica": 4782,
      "Ġvariety": 4783,
      "Ġregarding": 4784,
      "enge": 4785,
      "Ġemerg": 4786,
      "DL": 4787,
      "Ġfather": 4788,
      "Ġbal": 4789,
      "ĠNovember": 4790,
      "eria": 4791,
      "ades": 4792,
      "Ġnearest": 4793,
      "Ġclean": 4794,
      "ĠĠĠĠčĊ": 4795,
      "ĠChar": 4796,
      "CE": 4797,
      "Ġfriends": 4798,
      "Ġindustry": 4799,
      "Ġdrive": 4800,
      "Ġproviding": 4801,
      "config": 4802,
      "Ġshape": 4803,
      "ĠRed": 4804,
      "ESS": 4805,
      "Ġestablish": 4806,
      "!!": 4807,
      "level": 4808,
      "Ġmeaning": 4809,
      "Node": 4810,
      "ruary": 4811,
      "Ġbank": 4812,
      "iforn": 4813,
      "ranch": 4814,
      "Ġstrength": 4815,
      "Ġfre": 4816,
      "\\|": 4817,
      "Ġroot": 4818,
      "ights": 4819,
      "iform": 4820,
      "osing": 4821,
      "SH": 4822,
      "ĠSub": 4823,
      "Ġboard": 4824,
      "Ġcandid": 4825,
      "Ġwide": 4826,
      "Ġcoming": 4827,
      "Ġreceive": 4828,
      "ĠLa": 4829,
      "Ġplaced": 4830,
      "Ġstudied": 4831,
      "ĠList": 4832,
      "Ġincreases": 4833,
      "Ġelectr": 4834,
      "Ġreasonable": 4835,
      "Ġmolecular": 4836,
      ".[": 4837,
      "Ġthroughout": 4838,
      "ANT": 4839,
      "king": 4840,
      "Ġcoord": 4841,
      "eli": 4842,
      "ulf": 4843,
      "Ġwild": 4844,
      "00000000": 4845,
      "ĠAND": 4846,
      "RI": 4847,
      "Ġmer": 4848,
      "Ġselection": 4849,
      "Ġnoted": 4850,
      "yst": 4851,
      "ico": 4852,
      "iring": 4853,
      "Ġcomment": 4854,
      "ails": 4855,
      "Ġdatabase": 4856,
      "zym": 4857,
      "Ġalbum": 4858,
      "ĠPublic": 4859,
      "ĠWest": 4860,
      "Ġ});": 4861,
      "Ġmac": 4862,
      "Ġvoltage": 4863,
      "Ġanyone": 4864,
      "Ġbecomes": 4865,
      "Ġcommer": 4866,
      "Ġbrief": 4867,
      "Ïĥ": 4868,
      "Ġenter": 4869,
      "Ġotherwise": 4870,
      "kg": 4871,
      "fe": 4872,
      "Ġchrom": 4873,
      "Ġclosed": 4874,
      "apping": 4875,
      "Ġ--------": 4876,
      "itivity": 4877,
      "Ġtypically": 4878,
      "title": 4879,
      "Ġpanel": 4880,
      "under": 4881,
      "Ġcatal": 4882,
      "Ġconstruction": 4883,
      "ĠAfric": 4884,
      "Ġmort": 4885,
      "Ġserious": 4886,
      "ĠAmerica": 4887,
      "Ġdomain": 4888,
      "Man": 4889,
      "Ġfix": 4890,
      "Ġforms": 4891,
      "Ġsurvival": 4892,
      "Î·": 4893,
      "Ġ;": 4894,
      "Ġmid": 4895,
      "Ġsle": 4896,
      "Size": 4897,
      "yond": 4898,
      "Ġwave": 4899,
      "Ġmal": 4900,
      "Ġoptical": 4901,
      "Ġswitch": 4902,
      "run": 4903,
      "ilitary": 4904,
      "ĠPark": 4905,
      "Ġvac": 4906,
      "Ġcompanies": 4907,
      "='": 4908,
      "icity": 4909,
      "NO": 4910,
      "DS": 4911,
      "PL": 4912,
      "Ġtro": 4913,
      "ashing": 4914,
      "Ġdamage": 4915,
      "Ġbed": 4916,
      "icit": 4917,
      "ĠĠĠĠĠĠĠĠĠĠĠĠĠĠĠĠĠĠĠĠĠĠĠĠĠĠ": 4918,
      "ÂłÂłÂłÂł": 4919,
      "Simplify": 4920,
      "Ġ^": 4921,
      "Ð°Ð": 4922,
      "case": 4923,
      "ql": 4924,
      "road": 4925,
      "Ġ37": 4926,
      "Ġmanner": 4927,
      "Ġbasic": 4928,
      "Ġassume": 4929,
      "Ġexisting": 4930,
      "ascular": 4931,
      "Ġapproximately": 4932,
      "AV": 4933,
      "ifornia": 4934,
      "ifier": 4935,
      "ĠNOT": 4936,
      "Ġsymptoms": 4937,
      "rench": 4938,
      "Ġnor": 4939,
      "ĠAut": 4940,
      "erent": 4941,
      "resh": 4942,
      "------------------------------------------------": 4943,
      "ĠMark": 4944,
      "Ġdiscussed": 4945,
      "Ġtowards": 4946,
      "ocket": 4947,
      "uge": 4948,
      "TER": 4949,
      "After": 4950,
      "Ġsec": 4951,
      "Ġsymm": 4952,
      "Ġmeasures": 4953,
      "flow": 4954,
      "ĠTex": 4955,
      "poses": 4956,
      "PC": 4957,
      "ĠTH": 4958,
      "ressive": 4959,
      "content": 4960,
      "Ġdecreased": 4961,
      "Form": 4962,
      "erate": 4963,
      "Ġtown": 4964,
      "Ġtechniques": 4965,
      "Ġslight": 4966,
      "adem": 4967,
      "Ġimproved": 4968,
      "ĠEnglish": 4969,
      "IB": 4970,
      "Ġcomplic": 4971,
      "Ġinteresting": 4972,
      "ka": 4973,
      "Ġoperator": 4974,
      "ĠGroup": 4975,
      "Ġprice": 4976,
      "Ġanimals": 4977,
      "ĠHouse": 4978,
      "uses": 4979,
      "Ġplease": 4980,
      "Ġearlier": 4981,
      "Ġcryst": 4982,
      "Ġpolitical": 4983,
      "}-": 4984,
      "well": 4985,
      "maz": 4986,
      "Ġbuy": 4987,
      "Phi": 4988,
      "Ġsymmet": 4989,
      "using": 4990,
      "Ġhighest": 4991,
      "###": 4992,
      "Ġrapid": 4993,
      "Ġinflam": 4994,
      "Rec": 4995,
      "nes": 4996,
      "base": 4997,
      "ĠEl": 4998,
      "Ġpicked": 4999,
      "à·": 5000,
      "Ġroad": 5001,
      "Ġderived": 5002,
      "ocr": 5003,
      "oice": 5004,
      "equest": 5005,
      "Sub": 5006,
      "sup": 5007,
      "aratus": 5008,
      "Ġcorrelation": 5009,
      "Ġmale": 5010,
      "ĠNS": 5011,
      "ĠBecause": 5012,
      "Ġsources": 5013,
      "dot": 5014,
      "Ġtask": 5015,
      "Index": 5016,
      "Ġ2018": 5017,
      "raz": 5018,
      "Ġbrought": 5019,
      "ĠOther": 5020,
      "ĠĠĠĠĠĠĠĠĠĠĠĠĠĠĠĠĠĠĠĠĠĠĠĠĠĠĠĠĠĠĠ": 5021,
      "ĠOb": 5022,
      "Le": 5023,
      "Ġrev": 5024,
      "ĠSec": 5025,
      "Ġplate": 5026,
      "Ġcommit": 5027,
      "Path": 5028,
      "Ġeth": 5029,
      "Ġsold": 5030,
      "Ġbond": 5031,
      "Ġweak": 5032,
      "host": 5033,
      "Ġcounter": 5034,
      "MC": 5035,
      "Ġwatch": 5036,
      "ĠMich": 5037,
      "Ġmachine": 5038,
      "Ġinn": 5039,
      "Ġstation": 5040,
      "pective": 5041,
      "cons": 5042,
      "Ġanalyzed": 5043,
      "En": 5044,
      "FA": 5045,
      "gn": 5046,
      "ĠOf": 5047,
      "Ġtesting": 5048,
      "Ġvirt": 5049,
      "ooth": 5050,
      "xsl": 5051,
      "Code": 5052,
      "Ġachieve": 5053,
      "alt": 5054,
      "ĠTheorem": 5055,
      "iable": 5056,
      "osen": 5057,
      "attle": 5058,
      "Ġones": 5059,
      "Ġcontrols": 5060,
      "Ġhypot": 5061,
      "Ġbeyond": 5062,
      "Ġ45": 5063,
      "Ġworked": 5064,
      "ypes": 5065,
      "start": 5066,
      "Ġadapt": 5067,
      "ĠSen": 5068,
      "2017": 5069,
      "Ġvisual": 5070,
      "ÏĤ": 5071,
      "utive": 5072,
      "ĠWilli": 5073,
      "Ġsuggested": 5074,
      "Ġwoman": 5075,
      "omas": 5076,
      "Ġlip": 5077,
      "Over": 5078,
      "ĠHer": 5079,
      "Ġapparatus": 5080,
      "olar": 5081,
      "berg": 5082,
      "Do": 5083,
      "Ġhospital": 5084,
      "Ġwonder": 5085,
      "Ġtechnique": 5086,
      "TO": 5087,
      "Ġsteps": 5088,
      "Ġhttps": 5089,
      "Ġcapacity": 5090,
      "////////": 5091,
      "Ġbr": 5092,
      "ponent": 5093,
      "RS": 5094,
      "Ġwhereas": 5095,
      "Be": 5096,
      "ait": 5097,
      "ĠAlso": 5098,
      "ida": 5099,
      "Ġarri": 5100,
      "Ġcarry": 5101,
      "dir": 5102,
      "soft": 5103,
      "Ġoptim": 5104,
      "Ġquantum": 5105,
      "ILE": 5106,
      "opic": 5107,
      "inner": 5108,
      "Ġgoal": 5109,
      "Ġmeasurements": 5110,
      "ĠHigh": 5111,
      "TT": 5112,
      "Ġer": 5113,
      "Ġthrow": 5114,
      "})$": 5115,
      "idem": 5116,
      "Ġabsol": 5117,
      "car": 5118,
      "Ġtools": 5119,
      "Ġhundred": 5120,
      "Ġworth": 5121,
      "ctors": 5122,
      "iding": 5123,
      "ĠNULL": 5124,
      "\"></": 5125,
      "can": 5126,
      "ĠMus": 5127,
      "Sigma": 5128,
      "vec": 5129,
      "Ġphone": 5130,
      "unn": 5131,
      "Ġri": 5132,
      "Ġstarting": 5133,
      "Ġinstr": 5134,
      ",'": 5135,
      "Ġsecret": 5136,
      "Ġremove": 5137,
      "Äį": 5138,
      "amin": 5139,
      "ithub": 5140,
      "ĠMon": 5141,
      "Ġ2006": 5142,
      "ijms": 5143,
      "Out": 5144,
      "ĠFr": 5145,
      "symbol": 5146,
      "Ġscen": 5147,
      "ĠGover": 5148,
      "Ġ(\"": 5149,
      "Ġtransmission": 5150,
      "Ġmm": 5151,
      "Ġprobability": 5152,
      "Ġhon": 5153,
      "select": 5154,
      "ĠFebruary": 5155,
      "normal": 5156,
      "Ġradio": 5157,
      "Ġdiss": 5158,
      "Ġdecided": 5159,
      "Ġresolution": 5160,
      "indows": 5161,
      "Ġcoe": 5162,
      "Ġswe": 5163,
      "Ġmg": 5164,
      "VER": 5165,
      "Ġdistributed": 5166,
      "/\\": 5167,
      "ymph": 5168,
      "ĠResearch": 5169,
      "Ġnan": 5170,
      "Ġintroduced": 5171,
      "Ġsuff": 5172,
      "Ġsomet": 5173,
      "Å¡": 5174,
      "itness": 5175,
      "Ġ36": 5176,
      "Ġinterview": 5177,
      "Ġplayer": 5178,
      "Ġcombined": 5179,
      "Ġremoved": 5180,
      "Ġprove": 5181,
      "[]": 5182,
      "ĠCirc": 5183,
      "reek": 5184,
      "Here": 5185,
      "Inst": 5186,
      "Ġcarbon": 5187,
      "Ġneur": 5188,
      "Ġ2000": 5189,
      "Ġleads": 5190,
      "itory": 5191,
      "ĠAc": 5192,
      "Ġitem": 5193,
      "Ġreports": 5194,
      "{\"": 5195,
      "ulin": 5196,
      "âĢ²": 5197,
      "Ġscreen": 5198,
      "Ass": 5199,
      "Ġplayed": 5200,
      "pa": 5201,
      "ĠCalifornia": 5202,
      "ĠGet": 5203,
      "Config": 5204,
      "QL": 5205,
      "004": 5206,
      "Ġkin": 5207,
      "Ġfigure": 5208,
      "ĠFl": 5209,
      "Ġrelation": 5210,
      "Ġcollected": 5211,
      ")*(": 5212,
      "aign": 5213,
      "Ġ70": 5214,
      "Ab": 5215,
      "RT": 5216,
      ">>": 5217,
      "mbox": 5218,
      "Ġwrote": 5219,
      "idel": 5220,
      "Ġmajority": 5221,
      "olid": 5222,
      "uffer": 5223,
      "ria": 5224,
      "ĠEuropean": 5225,
      "igation": 5226,
      "Ġchannel": 5227,
      "Ġunc": 5228,
      "Ġaward": 5229,
      "di": 5230,
      "induced": 5231,
      "Ġdead": 5232,
      "Ġreturned": 5233,
      "Ġrules": 5234,
      "Ġ2007": 5235,
      "Ġpull": 5236,
      "ometry": 5237,
      "pected": 5238,
      "MD": 5239,
      "ifest": 5240,
      "Ġfacts": 5241,
      "500": 5242,
      "java": 5243,
      "Ġassociation": 5244,
      "image": 5245,
      "Ġ\"\\": 5246,
      "izer": 5247,
      "Ġsequences": 5248,
      "Ser": 5249,
      "open": 5250,
      "Ġseed": 5251,
      "room": 5252,
      "Ġmonitor": 5253,
      "Ġchoose": 5254,
      "sf": 5255,
      "Ġpopular": 5256,
      "Ġsummary": 5257,
      "olved": 5258,
      "Î²": 5259,
      "Ġmys": 5260,
      "Ġdownload": 5261,
      "Ġconcentrations": 5262,
      "OL": 5263,
      "Reg": 5264,
      "ky": 5265,
      "Ġrob": 5266,
      "itis": 5267,
      "lication": 5268,
      "vari": 5269,
      "result": 5270,
      "ĠKing": 5271,
      "Ġnamed": 5272,
      "osc": 5273,
      "specific": 5274,
      "Ġ33": 5275,
      "MT": 5276,
      "arant": 5277,
      "Ġtested": 5278,
      "MI": 5279,
      "ĠDi": 5280,
      "force": 5281,
      "(&": 5282,
      "tra": 5283,
      "Ġ------------": 5284,
      "Ġanalyses": 5285,
      "itz": 5286,
      "Ġspin": 5287,
      "Ġblog": 5288,
      "omb": 5289,
      "acing": 5290,
      "Ġcomposition": 5291,
      "FT": 5292,
      "Ġconver": 5293,
      "ĠDis": 5294,
      "Ġexactly": 5295,
      "Ġdistinct": 5296,
      "ĠAtt": 5297,
      "Ġvel": 5298,
      "Ġillust": 5299,
      "parent": 5300,
      "thon": 5301,
      "Ġcycle": 5302,
      "Ġstorage": 5303,
      "Ġindicates": 5304,
      "Ġbottom": 5305,
      "RA": 5306,
      "Ġreceptor": 5307,
      "Ġefficient": 5308,
      "Ġturned": 5309,
      "Ġcommercial": 5310,
      "ayer": 5311,
      "riminal": 5312,
      "ename": 5313,
      "Ġsurgery": 5314,
      "Read": 5315,
      "ĠAng": 5316,
      "Ġaw": 5317,
      "actor": 5318,
      "Ġ48": 5319,
      "Ġcircumst": 5320,
      "Ġtend": 5321,
      "acters": 5322,
      "}}_{": 5323,
      "Ġjurisdiction": 5324,
      "enty": 5325,
      "atically": 5326,
      "eric": 5327,
      "istant": 5328,
      "Ġestimated": 5329,
      "Ġresources": 5330,
      "Array": 5331,
      "icial": 5332,
      "ignment": 5333,
      "ingu": 5334,
      "rome": 5335,
      "Ġspecifically": 5336,
      "Ġimmediately": 5337,
      "Ġmovement": 5338,
      "IA": 5339,
      "range": 5340,
      "Ġensure": 5341,
      "]),": 5342,
      "Ġaffected": 5343,
      "Ġcir": 5344,
      "aser": 5345,
      "Now": 5346,
      "Ġstd": 5347,
      "Ġmoved": 5348,
      "Ġson": 5349,
      "Ġtoward": 5350,
      "Ġdelay": 5351,
      "iance": 5352,
      "Ġsubjects": 5353,
      "Ġwid": 5354,
      "ĠCong": 5355,
      "Ġvacc": 5356,
      "Up": 5357,
      "ara": 5358,
      "Ġdenied": 5359,
      "Ġdoor": 5360,
      "edu": 5361,
      "âĢĬ": 5362,
      "Ġinsert": 5363,
      "Ġparticles": 5364,
      "Ġeveryone": 5365,
      "Ġsafety": 5366,
      "Ġpaid": 5367,
      "Ġapparent": 5368,
      "je": 5369,
      "php": 5370,
      "ĠĠĠĠĠĠĠĠĠĠĠĠĠĠĠĠĠĠĠĠĠĠĠĠĠĠĠĠĠ": 5371,
      "ĠAustral": 5372,
      "EC": 5373,
      "Ġ~": 5374,
      "Ġneuro": 5375,
      "Ġplatform": 5376,
      "abil": 5377,
      "Ġum": 5378,
      "Ġrecorded": 5379,
      "Ġrecommend": 5380,
      "roller": 5381,
      "Ġfraction": 5382,
      "post": 5383,
      "Ġheard": 5384,
      "Ġskin": 5385,
      "Ġstaff": 5386,
      "Ġedge": 5387,
      "ILL": 5388,
      "Ġsevere": 5389,
      "Ġupdate": 5390,
      "Ġformat": 5391,
      "Ġadministration": 5392,
      "Ġfold": 5393,
      "ptions": 5394,
      "Ġdose": 5395,
      "0001": 5396,
      "Ġproport": 5397,
      "Ġknew": 5398,
      ")/(": 5399,
      "Ġoil": 5400,
      "VD": 5401,
      "ĠNa": 5402,
      "Ġenzym": 5403,
      "Ġchemical": 5404,
      "now": 5405,
      "Ġ()": 5406,
      "Ġelectric": 5407,
      "frame": 5408,
      "oto": 5409,
      "Ġagree": 5410,
      "fort": 5411,
      "fold": 5412,
      "endif": 5413,
      "Ġlung": 5414,
      "ĠEm": 5415,
      "Ġsup": 5416,
      "allel": 5417,
      "ĠAD": 5418,
      "ĠCenter": 5419,
      "Ġscient": 5420,
      "({": 5421,
      "Ġ2005": 5422,
      "~~~": 5423,
      "Ġexercise": 5424,
      "asp": 5425,
      "ĠLou": 5426,
      "itter": 5427,
      "Ġmembrane": 5428,
      "Ġshift": 5429,
      "Calculate": 5430,
      "css": 5431,
      "Ġstatute": 5432,
      "Ġmentioned": 5433,
      "erior": 5434,
      "ĠID": 5435,
      "Ġrespond": 5436,
      "Ġsuccessful": 5437,
      "**]{},": 5438,
      "Ġstars": 5439,
      "ĠFound": 5440,
      "ygen": 5441,
      ".*": 5442,
      "Ġthick": 5443,
      "pled": 5444,
      "Ġmotor": 5445,
      "Ġmechanisms": 5446,
      "Ġalgorithm": 5447,
      "ĠTest": 5448,
      "Ġassuming": 5449,
      "last": 5450,
      "ui": 5451,
      "Me": 5452,
      "\\{": 5453,
      "ipment": 5454,
      "Ġpassed": 5455,
      "Ġprofile": 5456,
      "Ġresponses": 5457,
      "Info": 5458,
      "rary": 5459,
      "ĠFigure": 5460,
      "Ġopportunity": 5461,
      "Ġemail": 5462,
      "UE": 5463,
      "zen": 5464,
      "Ġthreat": 5465,
      "github": 5466,
      "Ġbeaut": 5467,
      "ĠBi": 5468,
      "Ġoperating": 5469,
      "ĠTechn": 5470,
      "Ġdismiss": 5471,
      "vest": 5472,
      "Ġmes": 5473,
      "Ġ_{": 5474,
      "Ġclick": 5475,
      "LO": 5476,
      "ĠInter": 5477,
      "Ġefficiency": 5478,
      "Ġoperations": 5479,
      "ncil": 5480,
      "PH": 5481,
      "Ġonto": 5482,
      "Ġdiagnosis": 5483,
      "mid": 5484,
      "Ġlib": 5485,
      "Ġbuffer": 5486,
      "Ġconventional": 5487,
      "Ġsubstrate": 5488,
      "See": 5489,
      "reate": 5490,
      "oura": 5491,
      "check": 5492,
      "Ġabsence": 5493,
      "Ġactions": 5494,
      "==========": 5495,
      "rices": 5496,
      "Ġvisit": 5497,
      "Ġinterf": 5498,
      "Ġmodern": 5499,
      "abla": 5500,
      "Å¾": 5501,
      "Ġprofessional": 5502,
      "ĠHam": 5503,
      "Message": 5504,
      "Log": 5505,
      "Ġfemale": 5506,
      "Ġmess": 5507,
      "Ġhear": 5508,
      "van": 5509,
      "Ġsometimes": 5510,
      ")^{": 5511,
      "reet": 5512,
      "object": 5513,
      "Ġdecrease": 5514,
      "Att": 5515,
      "Ġrepro": 5516,
      "Ġ42": 5517,
      "reated": 5518,
      "ications": 5519,
      "Ġ{{\\": 5520,
      "supplementary": 5521,
      "Ġign": 5522,
      "ĠPD": 5523,
      "Ġconfiguration": 5524,
      "Ġ&=": 5525,
      "dots": 5526,
      "oken": 5527,
      "Ġchain": 5528,
      "Ġalternative": 5529,
      "SI": 5530,
      "Ġextrem": 5531,
      "Ġimm": 5532,
      "igg": 5533,
      "Ġgoes": 5534,
      "Ġ);": 5535,
      "Ġca": 5536,
      "Ġmodule": 5537,
      "uty": 5538,
      "istory": 5539,
      "Ġminimum": 5540,
      "Ġaccuracy": 5541,
      "Ġpow": 5542,
      "Ġarrang": 5543,
      "itutional": 5544,
      "Ġflex": 5545,
      "oted": 5546,
      "Ġexception": 5547,
      "Ġdog": 5548,
      "Ġliver": 5549,
      "Ġhands": 5550,
      "Ġrequirements": 5551,
      "Ġdigital": 5552,
      "local": 5553,
      "ĠRel": 5554,
      "Ġreach": 5555,
      "Ġfinite": 5556,
      "going": 5557,
      "phone": 5558,
      "Ġsou": 5559,
      "Ġtree": 5560,
      "Ġconfirmed": 5561,
      "Ġresponsible": 5562,
      "Ġsend": 5563,
      "ĠSuch": 5564,
      "Ġupd": 5565,
      "Ġgenetic": 5566,
      "Ġconflic": 5567,
      "irt": 5568,
      "Ġinteractions": 5569,
      "Ġcauses": 5570,
      "Ġjoint": 5571,
      "rient": 5572,
      "MB": 5573,
      "ivo": 5574,
      "Ġcop": 5575,
      "Ġlooks": 5576,
      "Ġliterature": 5577,
      "Ġequivalent": 5578,
      "ĠArm": 5579,
      "ï¼Į": 5580,
      "gr": 5581,
      "Ġrank": 5582,
      "Ġevaluated": 5583,
      "nabla": 5584,
      "rep": 5585,
      "Ġroll": 5586,
      "Ġbooks": 5587,
      "Ġmobile": 5588,
      "Ġobvious": 5589,
      "ifying": 5590,
      "Ġcouple": 5591,
      "cence": 5592,
      "Ġlov": 5593,
      "Ġfluid": 5594,
      "iny": 5595,
      "Ġfight": 5596,
      "Ġmur": 5597,
      "lies": 5598,
      "Ġprograms": 5599,
      "coh": 5600,
      "Ġbehavi": 5601,
      "Ġdoc": 5602,
      "Ġemot": 5603,
      "Ġagent": 5604,
      "matory": 5605,
      "Ġconvert": 5606,
      "ĠCode": 5607,
      "Ġstock": 5608,
      "boldsymbol": 5609,
      "Ġgal": 5610,
      "ĠSupp": 5611,
      "ĠAnt": 5612,
      "Ġsentence": 5613,
      "ĠCON": 5614,
      "othe": 5615,
      "Ġexternal": 5616,
      "ĠMor": 5617,
      "ĠDem": 5618,
      "Ġlegis": 5619,
      "Count": 5620,
      "Ġcontinued": 5621,
      "Ġevolution": 5622,
      "Ġloop": 5623,
      "Ġborder": 5624,
      "Ġsurpr": 5625,
      "Ġdrugs": 5626,
      "Ġdied": 5627,
      "itled": 5628,
      "ruit": 5629,
      "Ġparents": 5630,
      "Color": 5631,
      "Ġsusp": 5632,
      "Ġeight": 5633,
      "Ġdescribe": 5634,
      "ĠEach": 5635,
      "Ġmoving": 5636,
      "AND": 5637,
      "Ġblue": 5638,
      "Ġappellant": 5639,
      "Ġdaily": 5640,
      "ĠRef": 5641,
      "Ġspread": 5642,
      "Ġclasses": 5643,
      "inant": 5644,
      "Ġnone": 5645,
      "ĠTO": 5646,
      "Ġalt": 5647,
      "Ġprepared": 5648,
      "She": 5649,
      "Ġmiddle": 5650,
      "/-": 5651,
      "ĠĠĠĠĠĠĠĠĠĠĠĠĠĠĠĠĠĠĠĠĠĠĠĠĠĠĠĠ": 5652,
      "Ġsaying": 5653,
      "Ġbenefits": 5654,
      "Ġcit": 5655,
      "rich": 5656,
      "ociation": 5657,
      "core": 5658,
      "Ġsupply": 5659,
      "Ġprotection": 5660,
      "query": 5661,
      "SU": 5662,
      "jo": 5663,
      "ondon": 5664,
      "gt": 5665,
      "Ġsqrt": 5666,
      "reshold": 5667,
      "Ġdemand": 5668,
      "101": 5669,
      "lif": 5670,
      "Ġcomplaint": 5671,
      "Ġincorpor": 5672,
      "NP": 5673,
      "Ġtransl": 5674,
      "resents": 5675,
      "Ġcontained": 5676,
      "ba": 5677,
      "endant": 5678,
      "Ġagg": 5679,
      "height": 5680,
      "Ġthous": 5681,
      "Ġsave": 5682,
      "Ġfat": 5683,
      "________________": 5684,
      "Ġcharacters": 5685,
      "typ": 5686,
      "Ġentry": 5687,
      "gebra": 5688,
      "ĠSan": 5689,
      "Ġsitu": 5690,
      "ĠNote": 5691,
      "ĠPC": 5692,
      "ael": 5693,
      "Ġcareer": 5694,
      "ĠÎ±": 5695,
      "Ġhealthy": 5696,
      "otes": 5697,
      "}}{": 5698,
      "Aut": 5699,
      "ĠTexas": 5700,
      "Ġextent": 5701,
      "Ġapplicable": 5702,
      "Inter": 5703,
      "2010": 5704,
      "ĠInternational": 5705,
      "Ġtranscription": 5706,
      "Ġgets": 5707,
      "pass": 5708,
      "Ġinternational": 5709,
      "Ġconc": 5710,
      "uman": 5711,
      "Ġprem": 5712,
      "Ġthread": 5713,
      "Ġprepar": 5714,
      "Ġ(!": 5715,
      "Ġveloc": 5716,
      "Ġexpand": 5717,
      "ARR": 5718,
      "opyright": 5719,
      "Ġvert": 5720,
      "Ġlabor": 5721,
      "Ġincome": 5722,
      "Ġpsych": 5723,
      "before": 5724,
      "iers": 5725,
      "Ġmeeting": 5726,
      "ounced": 5727,
      "Ġarrest": 5728,
      "Ġion": 5729,
      "seq": 5730,
      "Ġsuggests": 5731,
      "Ġmorning": 5732,
      "alysis": 5733,
      "abs": 5734,
      "pping": 5735,
      "Ġextension": 5736,
      "Ġbenefit": 5737,
      "Ġquickly": 5738,
      "za": 5739,
      "Ġdiseases": 5740,
      "Rep": 5741,
      "Ġstream": 5742,
      "Ġcomments": 5743,
      "born": 5744,
      "agement": 5745,
      "Ġserved": 5746,
      "ĠCompany": 5747,
      "ech": 5748,
      "ements": 5749,
      "ĠLaw": 5750,
      "Ġoccup": 5751,
      "ĠDO": 5752,
      "Ġletter": 5753,
      "Ã§Ã£o": 5754,
      "Ġhit": 5755,
      "Ġplaces": 5756,
      "ĠDirect": 5757,
      "Ġrare": 5758,
      "ias": 5759,
      "SO": 5760,
      "atur": 5761,
      "Ġmetabol": 5762,
      "Ġaware": 5763,
      "ĠSet": 5764,
      "Ġgiving": 5765,
      "Trans": 5766,
      "ĠHol": 5767,
      "Ġ/**": 5768,
      "ashington": 5769,
      "Request": 5770,
      "build": 5771,
      "Act": 5772,
      "abilities": 5773,
      "Ġfinally": 5774,
      "Ġrang": 5775,
      "prot": 5776,
      "INE": 5777,
      "Ġadopt": 5778,
      "Ġsignals": 5779,
      "block": 5780,
      "=======": 5781,
      "ript": 5782,
      "Ġincub": 5783,
      "ingly": 5784,
      "ilarly": 5785,
      "**]{}": 5786,
      "Ġast": 5787,
      "ĠFile": 5788,
      "Ġimplic": 5789,
      "ugg": 5790,
      "ĠBank": 5791,
      "**(": 5792,
      "Ġgenerate": 5793,
      "Ġpatterns": 5794,
      "Ġreached": 5795,
      ")=\\": 5796,
      "what": 5797,
      "Ġhour": 5798,
      "rick": 5799,
      "ĠIndian": 5800,
      "Sp": 5801,
      "\"}.": 5802,
      "Ġchallenge": 5803,
      "Ġnearly": 5804,
      "ĠJe": 5805,
      "amily": 5806,
      "Ġcru": 5807,
      "Ġspectrum": 5808,
      "ĠIll": 5809,
      "iful": 5810,
      "Ġserum": 5811,
      "Ġcompleted": 5812,
      "operative": 5813,
      "ĠCircuit": 5814,
      "Ġwhom": 5815,
      "Ġpresident": 5816,
      "Ġeye": 5817,
      "Bl": 5818,
      "Ġfelt": 5819,
      "Ġhab": 5820,
      "Ġsignaling": 5821,
      "Ġwife": 5822,
      "Ġrefer": 5823,
      "Ġrepresents": 5824,
      "Ġerrors": 5825,
      "TY": 5826,
      "Ġmilitary": 5827,
      "asion": 5828,
      "contain": 5829,
      "]--": 5830,
      "Ġgly": 5831,
      "ĠBlack": 5832,
      "create": 5833,
      "yg": 5834,
      "Ġ34": 5835,
      "Ġexamined": 5836,
      "pc": 5837,
      "Ïħ": 5838,
      "\").": 5839,
      "Map": 5840,
      "Ġ[]": 5841,
      "Ġcontra": 5842,
      "icians": 5843,
      "Ġbul": 5844,
      "Per": 5845,
      "itect": 5846,
      "umin": 5847,
      "airs": 5848,
      "Ġchronic": 5849,
      "Group": 5850,
      "Ġplaying": 5851,
      "etes": 5852,
      "iled": 5853,
      "ologies": 5854,
      "Ġdiab": 5855,
      "Ġrelates": 5856,
      "2000": 5857,
      "Ġbutton": 5858,
      "2014": 5859,
      "Ġlooked": 5860,
      "ĠAT": 5861,
      "ytic": 5862,
      "esis": 5863,
      "Ñĥ": 5864,
      "lem": 5865,
      "Ġscript": 5866,
      "Ġrelig": 5867,
      "Ġimplementation": 5868,
      "main": 5869,
      "xx": 5870,
      "ario": 5871,
      "Ġstrategy": 5872,
      "Ġtens": 5873,
      "ĠRepublic": 5874,
      "Ġsrc": 5875,
      "aste": 5876,
      "Ġmissing": 5877,
      "<\\": 5878,
      "Ġna": 5879,
      "ĠEv": 5880,
      "ĠIII": 5881,
      "çļ": 5882,
      "Ġmig": 5883,
      "Ġbeginning": 5884,
      "Ġ\"$": 5885,
      "Ġ]": 5886,
      "ponse": 5887,
      "ĠBritish": 5888,
      "-------": 5889,
      "Ġlatter": 5890,
      "Ġarm": 5891,
      "Ġpurposes": 5892,
      "^-": 5893,
      "Ġcm": 5894,
      "Ġeconomic": 5895,
      "ocytes": 5896,
      "Ġalleged": 5897,
      "\"\"": 5898,
      "ĠSolve": 5899,
      "Ġgreen": 5900,
      "Ġassessment": 5901,
      "ĠAir": 5902,
      "weight": 5903,
      "Ðº": 5904,
      "Ġentered": 5905,
      "ĠPlaintiff": 5906,
      "ostic": 5907,
      "dimensional": 5908,
      "rees": 5909,
      "Ġhous": 5910,
      "Ġsecondary": 5911,
      "SYS": 5912,
      "$$\\": 5913,
      "NF": 5914,
      "inity": 5915,
      "Ġsurround": 5916,
      "isation": 5917,
      "Ġseven": 5918,
      "izations": 5919,
      "Ġsubs": 5920,
      "Ġ00": 5921,
      "apache": 5922,
      "Îº": 5923,
      "ãĢĤ": 5924,
      "Ġmouse": 5925,
      "Ġassay": 5926,
      "Ġpackage": 5927,
      "Ġgradu": 5928,
      "ometric": 5929,
      "Ġ2004": 5930,
      "xml": 5931,
      "ĠNO": 5932,
      "Ġdisp": 5933,
      "Ġspeak": 5934,
      "External": 5935,
      "Ġglass": 5936,
      "rab": 5937,
      "Ġimaging": 5938,
      "iveness": 5939,
      "iler": 5940,
      "ĠMost": 5941,
      "Ġgeneration": 5942,
      "Ġcampaign": 5943,
      "false": 5944,
      "ĠTwo": 5945,
      "Ġoppos": 5946,
      "Ġdiscussion": 5947,
      "ĠFe": 5948,
      "BA": 5949,
      "ellar": 5950,
      "Ġ};": 5951,
      "ITY": 5952,
      "ora": 5953,
      "itative": 5954,
      "ochond": 5955,
      "nonumber": 5956,
      "Ġsensitivity": 5957,
      "Ġlymph": 5958,
      "Ġexplained": 5959,
      "Ġstraight": 5960,
      "ĠUK": 5961,
      "ĠCR": 5962,
      "Ġhistor": 5963,
      "ĠBoard": 5964,
      "url": 5965,
      "Ġunless": 5966,
      "Ġoutcome": 5967,
      "EG": 5968,
      "ĠOff": 5969,
      "event": 5970,
      "Ġreturns": 5971,
      "Ġbreast": 5972,
      "Ġsymb": 5973,
      "ker": 5974,
      "Ġimportance": 5975,
      "imony": 5976,
      "ructions": 5977,
      "çļĦ": 5978,
      "Ġexcess": 5979,
      "Ġinvestigated": 5980,
      "ester": 5981,
      "ĠLem": 5982,
      "2015": 5983,
      "Ġleaders": 5984,
      ".[@": 5985,
      "-----": 5986,
      "}}^": 5987,
      "cor": 5988,
      "ÃĹ": 5989,
      "arter": 5990,
      "Ġlibrary": 5991,
      "Ġoxid": 5992,
      "Ġintensity": 5993,
      "Ġstatistical": 5994,
      "gments": 5995,
      "mut": 5996,
      "Ġregist": 5997,
      "cdots": 5998,
      "Ġsubsequent": 5999,
      "Ġcircumstances": 6000,
      "ipe": 6001,
      "she": 6002,
      "ditionally": 6003,
      "Ġorigin": 6004,
      "after": 6005,
      "ĠPre": 6006,
      "Ġbelong": 6007,
      "ĠĠĠĠĠĠĠĠĠĠĠĠĠĠĠĠĠĠĠĠĠĠĠĠĠĠĠĠĠĠ": 6008,
      "]--[@": 6009,
      "Ġwitness": 6010,
      "Ġ-->": 6011,
      "ĠClass": 6012,
      "Ġcluster": 6013,
      "iling": 6014,
      "ĠWork": 6015,
      "Ġplants": 6016,
      "Ġrecords": 6017,
      "ansion": 6018,
      "Ġcateg": 6019,
      "stract": 6020,
      "Ġexplain": 6021,
      "Ġopening": 6022,
      "Event": 6023,
      "Ġsust": 6024,
      "Ġmyself": 6025,
      "ORT": 6026,
      "Ġoccurred": 6027,
      "TA": 6028,
      "thm": 6029,
      "Ġrout": 6030,
      "Ġreferred": 6031,
      "Ġinvolve": 6032,
      "Î¯": 6033,
      "Ġdesired": 6034,
      "Ġprogress": 6035,
      "Ġminor": 6036,
      "CF": 6037,
      "ogene": 6038,
      "Ġintended": 6039,
      "\\*\\*": 6040,
      "ycl": 6041,
      "cluding": 6042,
      "inger": 6043,
      "pg": 6044,
      "ĠSupreme": 6045,
      "Ġtub": 6046,
      "Ġadvantage": 6047,
      "Ġdeli": 6048,
      "Ġestimate": 6049,
      "Image": 6050,
      "SM": 6051,
      "Ġnodes": 6052,
      "jected": 6053,
      "Ġbone": 6054,
      "Ġevaluation": 6055,
      "Ġnuclear": 6056,
      "Ġchance": 6057,
      "Ġbool": 6058,
      "Ġsell": 6059,
      "Ġtrade": 6060,
      "anned": 6061,
      "Ġequipment": 6062,
      "dependent": 6063,
      "Ġremaining": 6064,
      "rig": 6065,
      "rape": 6066,
      "Ġmeasurement": 6067,
      "Ġoccurs": 6068,
      "BL": 6069,
      "ĠWestern": 6070,
      "}\\,": 6071,
      "ĠPhil": 6072,
      "omorph": 6073,
      "ĠEq": 6074,
      "Ġachieved": 6075,
      "Ġtempor": 6076,
      "Co": 6077,
      "SON": 6078,
      "null": 6079,
      "icated": 6080,
      "Ġharm": 6081,
      "Ġcompounds": 6082,
      "However": 6083,
      "rl": 6084,
      "ni": 6085,
      "page": 6086,
      "Ġvary": 6087,
      "Ġwasn": 6088,
      "xe": 6089,
      "ĠFrench": 6090,
      "Ġdiag": 6091,
      "actory": 6092,
      "ync": 6093,
      "ĠEven": 6094,
      "pack": 6095,
      "orter": 6096,
      "uble": 6097,
      "Ġready": 6098,
      "Ġdelivery": 6099,
      "ĠDay": 6100,
      "neg": 6101,
      "Ġproperly": 6102,
      "nect": 6103,
      "ras": 6104,
      "ĉĉĉĉĉ": 6105,
      "Ġhandle": 6106,
      "pref": 6107,
      "ifications": 6108,
      "Fl": 6109,
      "istent": 6110,
      "stein": 6111,
      "layout": 6112,
      ",-": 6113,
      "ĠFinally": 6114,
      "ĠTw": 6115,
      "Ġcontrolled": 6116,
      "Ġelectronic": 6117,
      "EV": 6118,
      "ĠConst": 6119,
      "ALL": 6120,
      "icrosoft": 6121,
      "Ġpicture": 6122,
      "EF": 6123,
      "omes": 6124,
      "ĠSecond": 6125,
      "otimes": 6126,
      "Ġfilms": 6127,
      "Ġtissues": 6128,
      "arp": 6129,
      "Ġelim": 6130,
      "Ġring": 6131,
      "Ġpriv": 6132,
      "ÏĢ": 6133,
      "Ġconclusion": 6134,
      "Comp": 6135,
      "Ġemployed": 6136,
      "Ġtrac": 6137,
      "Ð»": 6138,
      "ellular": 6139,
      "mkern": 6140,
      "Ġsubstantial": 6141,
      "etal": 6142,
      "orders": 6143,
      "button": 6144,
      "Ġdisch": 6145,
      "Ġextended": 6146,
      "Ġserve": 6147,
      "ĠĠĠĠĠĠĠĠĠĠĠĠĠĠĠĠĠĠĠĠĠĠĠĠĠĠĠĠĠĠĠĠĠĠĠ": 6148,
      "ughter": 6149,
      "Ġrepresentation": 6150,
      "Ġvictim": 6151,
      "Ġbrow": 6152,
      "Ġholds": 6153,
      "Dis": 6154,
      "Ġscan": 6155,
      "ĠAny": 6156,
      "Ġscheme": 6157,
      "you": 6158,
      "Ġthank": 6159,
      "rative": 6160,
      "ĠAL": 6161,
      "ĠPal": 6162,
      "Ġremember": 6163,
      "/**": 6164,
      "Ġideas": 6165,
      "ilies": 6166,
      "ship": 6167,
      "########": 6168,
      "Ġimmune": 6169,
      "Ġreson": 6170,
      "ĠTR": 6171,
      "ĠWashington": 6172,
      "Ġconstit": 6173,
      "Ġinner": 6174,
      "Ġjudge": 6175,
      "User": 6176,
      "cup": 6177,
      "nb": 6178,
      "Ġcriteria": 6179,
      "know": 6180,
      "ĠLondon": 6181,
      "Ġlargest": 6182,
      "ini": 6183,
      "doc": 6184,
      "Ġimag": 6185,
      "Ġstable": 6186,
      "rav": 6187,
      "ĠBoth": 6188,
      "Our": 6189,
      "mem": 6190,
      "Ġsales": 6191,
      "ĠDuring": 6192,
      "Ġdiet": 6193,
      "Ġexistence": 6194,
      "ĠOut": 6195,
      "Ġnoise": 6196,
      "buf": 6197,
      "ĠOver": 6198,
      "Ġisolated": 6199,
      "kt": 6200,
      "Ġepis": 6201,
      "Fil": 6202,
      "ceived": 6203,
      "Ġformula": 6204,
      "mittee": 6205,
      "Ġvirus": 6206,
      "ĠEN": 6207,
      "Ġspir": 6208,
      "\"})": 6209,
      "Ġslightly": 6210,
      "uint": 6211,
      "Ġparticle": 6212,
      "Ġtypical": 6213,
      "Ġolder": 6214,
      "icate": 6215,
      "Ġmere": 6216,
      "ously": 6217,
      "roy": 6218,
      "Ġ38": 6219,
      "Ġlock": 6220,
      "Ġdespite": 6221,
      "Ġraised": 6222,
      "olf": 6223,
      "ĠDon": 6224,
      "ĠUsing": 6225,
      "how": 6226,
      "ĠPaul": 6227,
      "!--": 6228,
      "asure": 6229,
      "Ġlives": 6230,
      "dr": 6231,
      "draw": 6232,
      "Ġsen": 6233,
      "imb": 6234,
      "Ġwire": 6235,
      "Ġcreating": 6236,
      "ĠDan": 6237,
      "Element": 6238,
      "ÃŁ": 6239,
      "Ġvoice": 6240,
      "ART": 6241,
      "Ġassessed": 6242,
      "Ġheter": 6243,
      "Ġsmooth": 6244,
      "Ġanimal": 6245,
      "AGE": 6246,
      "sensors": 6247,
      "Ġnut": 6248,
      "Bar": 6249,
      "ront": 6250,
      "Ġplus": 6251,
      "ĠCA": 6252,
      "ĠFoundation": 6253,
      "Ġpopulations": 6254,
      "NU": 6255,
      "just": 6256,
      "ĠCI": 6257,
      "Ġpathway": 6258,
      "Ġinteger": 6259,
      "ĠĠĠĠĠĠĠĠĠĠĠĠĠĠĠĠĠĠĠĠĠĠĠĠĠĠĠĠĠĠĠĠĠĠĠĠĠĠĠĠĠĠĠĠĠĠĠĠĠĠĠĠĠĠĠĠĠĠĠĠĠĠĠĠĠĠĠĠĠĠĠĠĠĠĠĠĠĠĠĠĠĠĠĠĠĠĠĠĠĠĠĠĠĠĠĠĠĠĠĠĠĠĠĠĠĠĠĠĠĠĠĠĠĠĠĠĠĠĠĠĠĠĠĠĠĠĠĠĠĠĠĠĠĠĠĠĠĠĠĠĠĠĠĠĠĠĠĠĠĠĠĠĠĠĠĠĠĠĠĠĠĠĠĠĠĠĠĠĠĠĠĠĠĠĠĠĠĠĠĠĠĠĠĠĠĠĠĠĠĠĠĠĠĠĠĠĠĠĠĠĠĠĠĠĠĠĠĠĠĠĠĠĠĠĠĠĠĠĠĠĠĠĠĠĠĠĠĠĠĠĠĠĠĠĠĠĠĠĠĠĠĠĠĠĠĠĠĠĠĠĠĠĠĠĠĠ": 6260,
      "ĠÏĦ": 6261,
      "][": 6262,
      "Ġcook": 6263,
      "Ġpool": 6264,
      "Ġidentity": 6265,
      "ĠGoogle": 6266,
      "Ġmental": 6267,
      "Ġquery": 6268,
      "Ġinsurance": 6269,
      "Ġprocedures": 6270,
      "2016": 6271,
      "ĠCalculate": 6272,
      "Ġagreed": 6273,
      "ville": 6274,
      "ĠYour": 6275,
      "!\"": 6276,
      "Ġcast": 6277,
      "ĠType": 6278,
      "Ġregulation": 6279,
      "ĠJudge": 6280,
      "ateral": 6281,
      "Ġ2001": 6282,
      "template": 6283,
      "ĠFOR": 6284,
      "poss": 6285,
      "inese": 6286,
      "Ġdepth": 6287,
      "api": 6288,
      "Ġrepeated": 6289,
      "care": 6290,
      "2013": 6291,
      "inations": 6292,
      "Ġhair": 6293,
      "Americ": 6294,
      "Ġstored": 6295,
      "Ġstuff": 6296,
      "ĠÎ²": 6297,
      "Ġsleep": 6298,
      "ĠPM": 6299,
      "Ġauto": 6300,
      "Ġmorph": 6301,
      "Ġmanufacture": 6302,
      "Hand": 6303,
      "Ġoffers": 6304,
      "DO": 6305,
      "ĠUnder": 6306,
      "ĠCT": 6307,
      "Ġuniform": 6308,
      "orge": 6309,
      "Ġagents": 6310,
      "Ġcustomers": 6311,
      "Ġparallel": 6312,
      "Ġdetermination": 6313,
      "ca": 6314,
      "dec": 6315,
      "uing": 6316,
      "ye": 6317,
      "sole": 6318,
      "lands": 6319,
      "matrix": 6320,
      "Ġdriver": 6321,
      "Ġmix": 6322,
      "Ġsafe": 6323,
      "ban": 6324,
      "Ġplane": 6325,
      "ipher": 6326,
      "ĠCa": 6327,
      "Ġbiggest": 6328,
      "}+": 6329,
      "Ġlit": 6330,
      "Ġperhaps": 6331,
      "Ġtraditional": 6332,
      "linear": 6333,
      "ĠPri": 6334,
      "Ġinterested": 6335,
      "Ġcalls": 6336,
      "Ġdatas": 6337,
      "Ġtouch": 6338,
      "GG": 6339,
      "ien": 6340,
      "Ġchosen": 6341,
      "first": 6342,
      "Ġinvestigation": 6343,
      "Ġoxygen": 6344,
      "Ġrac": 6345,
      "Ġpros": 6346,
      "Ġprolif": 6347,
      "Ġ500": 6348,
      "Ġunderlying": 6349,
      "uum": 6350,
      "ishes": 6351,
      "Ġwind": 6352,
      "Ġdefense": 6353,
      "Ġpossibility": 6354,
      "Ġcredit": 6355,
      "Ġarter": 6356,
      "Ġvill": 6357,
      "Ġaccord": 6358,
      "appro": 6359,
      "Ġdepends": 6360,
      "agen": 6361,
      "ĠRet": 6362,
      "ĠItal": 6363,
      "Ġappoint": 6364,
      "??": 6365,
      "comple": 6366,
      "Ġborn": 6367,
      "wood": 6368,
      "Ġapproaches": 6369,
      "ĠCommun": 6370,
      "olean": 6371,
      "Ġlaws": 6372,
      "hern": 6373,
      "Ġminim": 6374,
      "Ġpure": 6375,
      "cohol": 6376,
      "ĠTV": 6377,
      "Ġhence": 6378,
      "\"),": 6379,
      "Ġdiscrim": 6380,
      "Ġantibody": 6381,
      "rd": 6382,
      "helial": 6383,
      "Ġthreshold": 6384,
      "adow": 6385,
      "atever": 6386,
      "ĠPR": 6387,
      "apers": 6388,
      "ĠmRNA": 6389,
      "ĠRiver": 6390,
      "hens": 6391,
      "ATION": 6392,
      "Ġexcell": 6393,
      "Ġoutcomes": 6394,
      "small": 6395,
      "Ġpiece": 6396,
      "ĠSD": 6397,
      "Ġcriminal": 6398,
      "ymmet": 6399,
      "Ġwait": 6400,
      "Ġdefect": 6401,
      "Ġappeared": 6402,
      "Ġcorpor": 6403,
      "Ġbra": 6404,
      "Ġrul": 6405,
      "ailed": 6406,
      "match": 6407,
      "Ġcapital": 6408,
      "Ġemployees": 6409,
      "RL": 6410,
      "omial": 6411,
      "Ġ120": 6412,
      "Ġdebt": 6413,
      "ĠHence": 6414,
      "Ġkid": 6415,
      "Ġfootball": 6416,
      "Ġalter": 6417,
      "Ġcharged": 6418,
      "Ġcentury": 6419,
      "arth": 6420,
      "Ġcompare": 6421,
      "^+^": 6422,
      "Ġdriving": 6423,
      "Ġenvironmental": 6424,
      "Ġnet": 6425,
      "Ġtrend": 6426,
      "urt": 6427,
      "seud": 6428,
      "Ġdeveloping": 6429,
      "([": 6430,
      "ĠCollege": 6431,
      "while": 6432,
      "asc": 6433,
      "img": 6434,
      "lectric": 6435,
      "Ġrepresented": 6436,
      "Ġtag": 6437,
      "default": 6438,
      "Ġevaluate": 6439,
      "Build": 6440,
      "ĠMiss": 6441,
      "Ġyourself": 6442,
      "Ġaccum": 6443,
      "Ġgluc": 6444,
      "ĠInstitute": 6445,
      "Click": 6446,
      "Ġdra": 6447,
      "undle": 6448,
      "output": 6449,
      "amine": 6450,
      "bert": 6451,
      "Which": 6452,
      "Î³": 6453,
      "process": 6454,
      "Ġdil": 6455,
      "Method": 6456,
      "ny": 6457,
      "Ġoral": 6458,
      "ialog": 6459,
      "Ġ+=": 6460,
      "Ġexplicit": 6461,
      "Ġ2002": 6462,
      "ĠIndia": 6463,
      "Ġstrongly": 6464,
      "Ġsam": 6465,
      "edia": 6466,
      "EO": 6467,
      "Ġfear": 6468,
      "ĠFree": 6469,
      "gh": 6470,
      "ested": 6471,
      "ochem": 6472,
      "Ġclub": 6473,
      "Ġhappen": 6474,
      "rapeut": 6475,
      "Ġgain": 6476,
      "Ġsuitable": 6477,
      "Service": 6478,
      "ĠField": 6479,
      "Ġrise": 6480,
      "Ġreplic": 6481,
      "ifferent": 6482,
      "Ġvelocity": 6483,
      "Ġbud": 6484,
      "Ġinterests": 6485,
      "ĠVol": 6486,
      "iller": 6487,
      "ellig": 6488,
      "oxid": 6489,
      "idden": 6490,
      "dem": 6491,
      "Ġmodified": 6492,
      "ipal": 6493,
      "Ġforces": 6494,
      "============": 6495,
      "Rev": 6496,
      "2012": 6497,
      "iner": 6498,
      "006": 6499,
      "ago": 6500,
      "Ġ2003": 6501,
      "ĠAppellant": 6502,
      "Ġmitochond": 6503,
      ".</": 6504,
      "Ġmainly": 6505,
      "Ġintegr": 6506,
      "Ġprefer": 6507,
      "Select": 6508,
      "Ġexamples": 6509,
      "ĠRead": 6510,
      "Ġpara": 6511,
      "Ġpolymer": 6512,
      "ĠPost": 6513,
      "Ġdetailed": 6514,
      "opath": 6515,
      "Ġattorney": 6516,
      "kin": 6517,
      "ells": 6518,
      "ĠWhite": 6519,
      "ĠAppe": 6520,
      "Ġaxis": 6521,
      "NE": 6522,
      "ĠScience": 6523,
      "Ġpartial": 6524,
      "Ġelev": 6525,
      "mg": 6526,
      "iced": 6527,
      "--------------------------------------------------------------------------------------------------------------------------------": 6528,
      "Ġcoverage": 6529,
      "Ġapopt": 6530,
      "sin": 6531,
      "ĠMem": 6532,
      "Ġrace": 6533,
      "DNA": 6534,
      "omal": 6535,
      "Ġheavy": 6536,
      "dist": 6537,
      "ĠStreet": 6538,
      "Ġ2019": 6539,
      "Ġspent": 6540,
      "Date": 6541,
      "cretion": 6542,
      "]$": 6543,
      "Ġcatch": 6544,
      "orption": 6545,
      "Ġfont": 6546,
      "SF": 6547,
      "Ġconclude": 6548,
      "Ġhem": 6549,
      "oret": 6550,
      "Ġvariation": 6551,
      "Ġterminal": 6552,
      "Ġvan": 6553,
      "ancing": 6554,
      "look": 6555,
      "ords": 6556,
      "Ġ64": 6557,
      "ĠUnion": 6558,
      "æľ": 6559,
      "Ġobservations": 6560,
      "IST": 6561,
      "Ġofficer": 6562,
      "ĠForm": 6563,
      "CTION": 6564,
      "Ġreceiving": 6565,
      "ĠPen": 6566,
      "Ġissued": 6567,
      "vol": 6568,
      "Ġinterval": 6569,
      "Ġstudent": 6570,
      "faces": 6571,
      "ror": 6572,
      "thern": 6573,
      "Ġscores": 6574,
      "023": 6575,
      "mas": 6576,
      "Ġrats": 6577,
      "Ġ44": 6578,
      "\\[[@": 6579,
      "Ġboundary": 6580,
      "Ġdynamics": 6581,
      "Ġcort": 6582,
      "ĠCH": 6583,
      "ĠAR": 6584,
      "iability": 6585,
      "Ġvitro": 6586,
      "Ġpersons": 6587,
      "Ġthinking": 6588,
      "Ġremainder": 6589,
      "TS": 6590,
      "Ġteac": 6591,
      "Ġgirl": 6592,
      "UG": 6593,
      "Ġlimitations": 6594,
      "burg": 6595,
      "context": 6596,
      "Ġsummer": 6597,
      "Ġgranted": 6598,
      "Line": 6599,
      "mt": 6600,
      "rog": 6601,
      "007": 6602,
      "********************************": 6603,
      "Ġ75": 6604,
      "Ġframework": 6605,
      "Ġshared": 6606,
      "Ġresulted": 6607,
      ";\\": 6608,
      "Ġcold": 6609,
      "organ": 6610,
      "Ġadding": 6611,
      "ĠGovernment": 6612,
      "Ġ${{\\": 6613,
      "xf": 6614,
      "Ġlisted": 6615,
      "Che": 6616,
      "äº": 6617,
      "ston": 6618,
      "night": 6619,
      "usband": 6620,
      "Ġdirected": 6621,
      "AF": 6622,
      "istor": 6623,
      "Ġanalog": 6624,
      "2018": 6625,
      "Ġgrowing": 6626,
      "Ġpark": 6627,
      "ether": 6628,
      "afe": 6629,
      "ĠSy": 6630,
      "Ġvess": 6631,
      "ĠMat": 6632,
      "othing": 6633,
      "2008": 6634,
      "Ġepit": 6635,
      "Ġfacilit": 6636,
      "ln": 6637,
      "src": 6638,
      "Pr": 6639,
      "Ġpun": 6640,
      "Ġconfirm": 6641,
      "Ġtox": 6642,
      "Ġrelief": 6643,
      "Ġapproved": 6644,
      "Ġdepending": 6645,
      ":\\": 6646,
      "Ġthereby": 6647,
      "UI": 6648,
      "}^\\": 6649,
      "ĠMac": 6650,
      "ĠOpen": 6651,
      "win": 6652,
      "ĠGerman": 6653,
      "Ġ${": 6654,
      "Ġstack": 6655,
      "clusive": 6656,
      "Ġenhance": 6657,
      "Box": 6658,
      "ju": 6659,
      "inator": 6660,
      "ĠCommittee": 6661,
      "110": 6662,
      "edge": 6663,
      "Ġsquare": 6664,
      "KE": 6665,
      "$)": 6666,
      "Ġnice": 6667,
      "Ġfloor": 6668,
      "Ġpositions": 6669,
      "Ġmixt": 6670,
      "break": 6671,
      "enu": 6672,
      "inder": 6673,
      "Ġradiation": 6674,
      "Ġcommonly": 6675,
      "Ġnetworks": 6676,
      "''": 6677,
      "Ġefforts": 6678,
      "Vert": 6679,
      "Ġ39": 6680,
      "ouble": 6681,
      "Ġmuscle": 6682,
      "Ġimplies": 6683,
      "Ġneighbor": 6684,
      "BP": 6685,
      "ĠService": 6686,
      "ĠVir": 6687,
      "Ġtestimony": 6688,
      "Ġmixed": 6689,
      "riage": 6690,
      "Ġempt": 6691,
      "Ġnation": 6692,
      "444": 6693,
      "300": 6694,
      "Ġdrop": 6695,
      "Ġreconst": 6696,
      "ĠĠĠĠĠĠĠĠĠĠĠĠĠĠĠĠĠĠĠĠĠĠĠĠĠĠĠĠĠĠĠĠĠĠĠĠĠĠĠ": 6697,
      "Ġwish": 6698,
      "Ġpad": 6699,
      "Ġapprec": 6700,
      "Ġcamera": 6701,
      "uscript": 6702,
      "Ġintra": 6703,
      "Ġorganization": 6704,
      "Ġfundament": 6705,
      "star": 6706,
      "ĠRem": 6707,
      "activ": 6708,
      "Ġsurvey": 6709,
      "Ġinhibition": 6710,
      "target": 6711,
      "Ġcivil": 6712,
      "aved": 6713,
      "Ġtal": 6714,
      "Ġmist": 6715,
      "sect": 6716,
      "Ġduration": 6717,
      "Ġfresh": 6718,
      "Ġgold": 6719,
      "Ġdemonstrate": 6720,
      "Ġos": 6721,
      "abric": 6722,
      "ĠPCR": 6723,
      "Ġkept": 6724,
      "ĠProgram": 6725,
      "annels": 6726,
      "Ġprotected": 6727,
      "Ġdefendants": 6728,
      "Ġconstraint": 6729,
      "Ġguess": 6730,
      "Ġ1998": 6731,
      "child": 6732,
      "inn": 6733,
      "ĠFIG": 6734,
      "valid": 6735,
      "Ġpy": 6736,
      "Ġpor": 6737,
      "Ġfeet": 6738,
      "usiness": 6739,
      "Ġobser": 6740,
      "Ġscience": 6741,
      "Ġmaybe": 6742,
      "Ġresearc": 6743,
      "Ġhappy": 6744,
      "ĠRober": 6745,
      "Ġtruth": 6746,
      "ĠCopyright": 6747,
      "ACK": 6748,
      "Ġexchange": 6749,
      "Ġarbit": 6750,
      "ĠChinese": 6751,
      "Ġstructural": 6752,
      "ASS": 6753,
      "]^.": 6754,
      "ilty": 6755,
      "Ġcourts": 6756,
      "hetic": 6757,
      "ĠpH": 6758,
      "cles": 6759,
      "Ġprotocol": 6760,
      "Arg": 6761,
      "ota": 6762,
      "ĠCongress": 6763,
      "Ġcellular": 6764,
      "Ġcurve": 6765,
      "Ġfloat": 6766,
      "ĠMal": 6767,
      "idelines": 6768,
      "Ġcompens": 6769,
      "Ġadult": 6770,
      "Version": 6771,
      "deg": 6772,
      "ona": 6773,
      "Ġinsp": 6774,
      "Ġattract": 6775,
      "Dec": 6776,
      "Â·": 6777,
      "åı": 6778,
      "Ġearn": 6779,
      "chang": 6780,
      "mathsf": 6781,
      "ĠCouncil": 6782,
      "standing": 6783,
      "Ġjava": 6784,
      "HER": 6785,
      "Ġexpert": 6786,
      "Ġauthority": 6787,
      "Ġmaster": 6788,
      "Ġentitled": 6789,
      "ogenic": 6790,
      "First": 6791,
      "Ġfluores": 6792,
      "System": 6793,
      "UD": 6794,
      "Ġcovered": 6795,
      "Ġstopp": 6796,
      "Ġinteract": 6797,
      "ĠLemma": 6798,
      "Ġassembly": 6799,
      "ĠSmith": 6800,
      "ĠSoft": 6801,
      "model": 6802,
      "aud": 6803,
      "ĠIF": 6804,
      "Ġsections": 6805,
      "Ġindicating": 6806,
      ">(": 6807,
      "PT": 6808,
      "else": 6809,
      "Ġ55": 6810,
      "120": 6811,
      "Ġhighlight": 6812,
      "brid": 6813,
      "amber": 6814,
      "crete": 6815,
      "ĠGreen": 6816,
      "ĠIsra": 6817,
      "Ġnarrow": 6818,
      "They": 6819,
      "Ġallowing": 6820,
      "ROM": 6821,
      "ĠGermany": 6822,
      "ulating": 6823,
      "%.": 6824,
      "Ġfirm": 6825,
      "asks": 6826,
      "oting": 6827,
      "amm": 6828,
      "ĠMart": 6829,
      "Ġestate": 6830,
      "Ã³n": 6831,
      "Ġabund": 6832,
      "Ġangle": 6833,
      "Ġversus": 6834,
      "Ġspecified": 6835,
      "LC": 6836,
      "Ġshot": 6837,
      "Ġprison": 6838,
      "ĠEast": 6839,
      "\\]).": 6840,
      "Ġmetast": 6841,
      "Ġbaseline": 6842,
      "Ġpurchase": 6843,
      "next": 6844,
      "ĠConf": 6845,
      "Ġopened": 6846,
      "summary": 6847,
      "source": 6848,
      "ĠGive": 6849,
      "ĠOh": 6850,
      "Ġplot": 6851,
      "Ġcertainly": 6852,
      "Ġinstrument": 6853,
      "Ġpharm": 6854,
      "control": 6855,
      "Ġcat": 6856,
      "ilton": 6857,
      "ĠBro": 6858,
      "Ġje": 6859,
      "Ġoffered": 6860,
      "Ġmostly": 6861,
      "Ġadvanced": 6862,
      "Model": 6863,
      "Can": 6864,
      "ĠMont": 6865,
      "Ġmanuscript": 6866,
      "Ġintervention": 6867,
      "Ġpolar": 6868,
      "equiv": 6869,
      "Ġinvestigate": 6870,
      "LR": 6871,
      "erated": 6872,
      "ĠWindows": 6873,
      "Ġacute": 6874,
      "Ġvivo": 6875,
      "2011": 6876,
      "author": 6877,
      "Ġdry": 6878,
      "Pe": 6879,
      "Ġunknown": 6880,
      "Ġcharacterized": 6881,
      ")}\\": 6882,
      "GE": 6883,
      "Ġbrand": 6884,
      "Ġ('": 6885,
      "ĠJack": 6886,
      "Ġspring": 6887,
      "Ġfamilies": 6888,
      "Ġmovie": 6889,
      "ugin": 6890,
      "Action": 6891,
      "}=\\": 6892,
      "orthern": 6893,
      "ĠHT": 6894,
      "Ġdynamic": 6895,
      "PU": 6896,
      "Ġbeam": 6897,
      "Property": 6898,
      "hi": 6899,
      "ĠAre": 6900,
      "Ġmicrosc": 6901,
      "ipped": 6902,
      "Ġintent": 6903,
      "Ġsuggesting": 6904,
      "Ext": 6905,
      "roduction": 6906,
      "ĠRich": 6907,
      "assert": 6908,
      "Ġ65": 6909,
      "Ġlatest": 6910,
      "ĠAS": 6911,
      "ĠWeb": 6912,
      "ĠMet": 6913,
      "&=": 6914,
      "acebook": 6915,
      "ĠCanada": 6916,
      "Ġsession": 6917,
      "Ġec": 6918,
      "Ġpreval": 6919,
      "imer": 6920,
      "Query": 6921,
      "icine": 6922,
      "entry": 6923,
      "Number": 6924,
      "ä»": 6925,
      "Ġstanding": 6926,
      "Ġexcellent": 6927,
      "})\\": 6928,
      "Ġsun": 6929,
      ")*(-": 6930,
      "Ġplanning": 6931,
      "cf": 6932,
      "Ġleaves": 6933,
      "number": 6934,
      "Ġwrt": 6935,
      "Ġstandards": 6936,
      "Ġwarrant": 6937,
      "umns": 6938,
      "Ġorient": 6939,
      "PG": 6940,
      "oking": 6941,
      "Ġexposed": 6942,
      "oplus": 6943,
      "LS": 6944,
      "conf": 6945,
      "Ġdegrees": 6946,
      "Ġcustomer": 6947,
      "Ġbiological": 6948,
      "Ġextremely": 6949,
      "uls": 6950,
      "ocy": 6951,
      "Ġmarked": 6952,
      "Ã½": 6953,
      "Î»": 6954,
      "ĠDel": 6955,
      "ĠAnn": 6956,
      "ais": 6957,
      "Back": 6958,
      "Ġplays": 6959,
      "Ġsigned": 6960,
      "Ġtrials": 6961,
      "Ġplans": 6962,
      "Ġunf": 6963,
      "CI": 6964,
      "Ġrecovery": 6965,
      "Ġdoubt": 6966,
      "Ġpush": 6967,
      "web": 6968,
      "current": 6969,
      "hab": 6970,
      "Ġdas": 6971,
      "ĠMath": 6972,
      "ĠHIV": 6973,
      "jud": 6974,
      "Ġcategory": 6975,
      "ĠBay": 6976,
      "Ġspat": 6977,
      "Ġarguments": 6978,
      "Ġremoval": 6979,
      "ector": 6980,
      "Ġspectra": 6981,
      "Expand": 6982,
      "Ġtelevision": 6983,
      "widehat": 6984,
      "ĠVer": 6985,
      "urrence": 6986,
      "Ġpatent": 6987,
      "treated": 6988,
      "DT": 6989,
      "racy": 6990,
      "Ġworkers": 6991,
      "Ġ300": 6992,
      "DB": 6993,
      "ifies": 6994,
      "Ġconvers": 6995,
      "Ġcorre": 6996,
      "DER": 6997,
      "Ġcere": 6998,
      "aby": 6999,
      "Ġindeed": 7000,
      "Ġpept": 7001,
      "Ġmolecules": 7002,
      "det": 7003,
      "sg": 7004,
      "Ġlaser": 7005,
      "Ġfuel": 7006,
      "Ġholding": 7007,
      "{$": 7008,
      "Ġprosec": 7009,
      "ĠGr": 7010,
      "Ġrock": 7011,
      "Ġpossibly": 7012,
      "ampions": 7013,
      "md": 7014,
      "**,": 7015,
      "only": 7016,
      "Ġencoura": 7017,
      "Ġbeautiful": 7018,
      "rypt": 7019,
      "Ġdistingu": 7020,
      "ĠJapanese": 7021,
      "house": 7022,
      "Ġanc": 7023,
      "ĠDet": 7024,
      "PRO": 7025,
      "104": 7026,
      "Ġcapable": 7027,
      "iological": 7028,
      "Ġchurch": 7029,
      "Ġprovision": 7030,
      "align": 7031,
      "ĠWhich": 7032,
      "bal": 7033,
      "ĠTime": 7034,
      "Ġpercentage": 7035,
      "While": 7036,
      "Ġseemed": 7037,
      "cher": 7038,
      "press": 7039,
      "2009": 7040,
      "Ġsensitive": 7041,
      "According": 7042,
      "args": 7043,
      "&#": 7044,
      "2019": 7045,
      "Ġsexual": 7046,
      "400": 7047,
      "illa": 7048,
      "mand": 7049,
      "Ġ43": 7050,
      "format": 7051,
      "raction": 7052,
      "Ġguarant": 7053,
      "ĠYes": 7054,
      "rapeutic": 7055,
      "End": 7056,
      ".$": 7057,
      "Work": 7058,
      "osa": 7059,
      "ĠIns": 7060,
      "nam": 7061,
      "ĠSur": 7062,
      "Ġgrand": 7063,
      "ributes": 7064,
      "Ġinterpretation": 7065,
      "bound": 7066,
      "itions": 7067,
      "Input": 7068,
      "sys": 7069,
      "Ġthin": 7070,
      "Ġprojects": 7071,
      "ĠSO": 7072,
      "rian": 7073,
      "Ġ41": 7074,
      "Ġequations": 7075,
      "Ġ--------------------------------": 7076,
      "rays": 7077,
      "ĠRob": 7078,
      "Ġcarcin": 7079,
      "Ġidentification": 7080,
      "\":\"": 7081,
      "Ġoptimal": 7082,
      "ilk": 7083,
      "Ġshoot": 7084,
      "lets": 7085,
      "Ġfaith": 7086,
      "Ġchanging": 7087,
      "}|": 7088,
      "ĠMany": 7089,
      "plant": 7090,
      "(\\[": 7091,
      "Ġtor": 7092,
      "Ġmel": 7093,
      "_{{\\": 7094,
      "Ġ1999": 7095,
      "Ġiron": 7096,
      "Ġsch": 7097,
      "Ġalcohol": 7098,
      "has": 7099,
      "Pre": 7100,
      "Ġmand": 7101,
      "ayout": 7102,
      "Ġnumerous": 7103,
      "icks": 7104,
      "utor": 7105,
      "Ġstrain": 7106,
      "tab": 7107,
      "Client": 7108,
      "ĠAssociation": 7109,
      "Ġran": 7110,
      "Ġagency": 7111,
      "Ġstatements": 7112,
      "Ġsensor": 7113,
      "Ġpredicted": 7114,
      "Ġcomposite": 7115,
      "Ġarchitect": 7116,
      "').": 7117,
      "Ġcontribution": 7118,
      "Ġlimits": 7119,
      "uries": 7120,
      "olicy": 7121,
      "Ġforth": 7122,
      "velopment": 7123,
      "Ġbrother": 7124,
      "Any": 7125,
      "subseteq": 7126,
      "Source": 7127,
      "Ġtestified": 7128,
      "Ġburden": 7129,
      "ki": 7130,
      "Ġstem": 7131,
      "Ġsynd": 7132,
      "icted": 7133,
      "isher": 7134,
      "Ġ150": 7135,
      "isted": 7136,
      "Ġkit": 7137,
      "Ġassigned": 7138,
      "Ġdimension": 7139,
      "Ġbatter": 7140,
      "Ġempty": 7141,
      "Ġscope": 7142,
      "Ġtalking": 7143,
      "Ġwidely": 7144,
      "Ġhuge": 7145,
      "stood": 7146,
      "Ġrevers": 7147,
      "Ġruns": 7148,
      "CU": 7149,
      "ERR": 7150,
      "\\!": 7151,
      "Ġuintptr": 7152,
      "Ġconserv": 7153,
      "sey": 7154,
      "Ġgrad": 7155,
      "Ġphenomen": 7156,
      "po": 7157,
      "ted": 7158,
      "endment": 7159,
      "Ġtechnical": 7160,
      "ĠRule": 7161,
      "Ġhappened": 7162,
      "CM": 7163,
      "edom": 7164,
      "Ġhop": 7165,
      "Ġclassification": 7166,
      "Ġremained": 7167,
      "Ġfrequently": 7168,
      "hent": 7169,
      "Ġpages": 7170,
      "Ġpartners": 7171,
      "INT": 7172,
      "DM": 7173,
      "cel": 7174,
      "cks": 7175,
      "ortunately": 7176,
      "Ïī": 7177,
      "Ġalgebra": 7178,
      "Ġwants": 7179,
      "ĠĠĠčĊ": 7180,
      "ultaneous": 7181,
      "Ġvirtual": 7182,
      "Ġsociety": 7183,
      "Ġfees": 7184,
      "ributions": 7185,
      "Ġemph": 7186,
      "ructure": 7187,
      "ĠSl": 7188,
      "Then": 7189,
      "mediate": 7190,
      "mL": 7191,
      "Ġeigen": 7192,
      "ĠFlor": 7193,
      "Ġ56": 7194,
      "Ġgenome": 7195,
      "Ġpairs": 7196,
      "Ġ72": 7197,
      "ĠSE": 7198,
      "Ġ47": 7199,
      "ios": 7200,
      "inite": 7201,
      "ests": 7202,
      "Ġaccel": 7203,
      "Ġbright": 7204,
      "iki": 7205,
      "Ġsettings": 7206,
      "Ġmortality": 7207,
      "Ġstrict": 7208,
      "ĠStat": 7209,
      "Ge": 7210,
      "BT": 7211,
      "Ġlif": 7212,
      "ĠLin": 7213,
      "Response": 7214,
      "Ġofficers": 7215,
      "Ġhusband": 7216,
      "Ġstories": 7217,
      "Ġ$(\\": 7218,
      "Ġ\\{": 7219,
      "Ġhole": 7220,
      "Ġmutations": 7221,
      "ĠChristian": 7222,
      "names": 7223,
      "Ġrecommended": 7224,
      "cp": 7225,
      "Ġinequ": 7226,
      "Ġconfidence": 7227,
      "hydro": 7228,
      "Ġconj": 7229,
      "estion": 7230,
      "Ġrail": 7231,
      "++++": 7232,
      "Ġacts": 7233,
      "Ġantibodies": 7234,
      "Ġcitiz": 7235,
      "clusions": 7236,
      "json": 7237,
      "Ġnorth": 7238,
      "Ġcomfort": 7239,
      "Ġsubset": 7240,
      "ita": 7241,
      "edy": 7242,
      "Ġbeg": 7243,
      "}.$$": 7244,
      "Ġgun": 7245,
      "oded": 7246,
      "client": 7247,
      "Ġexpansion": 7248,
      "ĠRad": 7249,
      "lang": 7250,
      "ĠMA": 7251,
      "ĠMot": 7252,
      "Ġforeign": 7253,
      "Ġconsidering": 7254,
      ";;": 7255,
      "None": 7256,
      "iant": 7257,
      "Ġschools": 7258,
      "ĠRT": 7259,
      "Ġoblig": 7260,
      "riter": 7261,
      "Char": 7262,
      "fd": 7263,
      "roke": 7264,
      "Ġpregn": 7265,
      "Ġsmallest": 7266,
      "}/": 7267,
      "oyal": 7268,
      "Ġadvance": 7269,
      "Ġ1996": 7270,
      "Ġimprovement": 7271,
      "ĠDiv": 7272,
      "Yes": 7273,
      ")]": 7274,
      "FS": 7275,
      "Ġnav": 7276,
      "ura": 7277,
      "pload": 7278,
      "010": 7279,
      "Ġoffset": 7280,
      "acent": 7281,
      "missions": 7282,
      "Ġcoupling": 7283,
      "std": 7284,
      "dp": 7285,
      "Ġideal": 7286,
      "ĠPort": 7287,
      "Results": 7288,
      "Controller": 7289,
      "Ġembry": 7290,
      "Ġcandidate": 7291,
      "Ġadequ": 7292,
      "Ġobjective": 7293,
      "scale": 7294,
      "ĠGra": 7295,
      "ĠON": 7296,
      "Ġdrink": 7297,
      "*/": 7298,
      "Ġthermal": 7299,
      "Ġrend": 7300,
      "}}{\\": 7301,
      "Gen": 7302,
      "Ġpix": 7303,
      "âĢĭ": 7304,
      "Ġclassical": 7305,
      "åħ": 7306,
      "appe": 7307,
      "Start": 7308,
      "het": 7309,
      "Ġinvolving": 7310,
      "bug": 7311,
      "Ġfol": 7312,
      "Ġecho": 7313,
      ")[": 7314,
      "FC": 7315,
      "status": 7316,
      "ĠHall": 7317,
      "Ġattached": 7318,
      "SET": 7319,
      "ĠPeople": 7320,
      "ano": 7321,
      "ections": 7322,
      "Ġreality": 7323,
      "Ġsupplement": 7324,
      "Ġconsideration": 7325,
      "ĠSU": 7326,
      "Ġcontribute": 7327,
      "Ġcolle": 7328,
      "cat": 7329,
      "Ġboy": 7330,
      "ĠHy": 7331,
      "elled": 7332,
      "Ġowner": 7333,
      "Ġdanger": 7334,
      "Ġconven": 7335,
      "tag": 7336,
      "Ġwood": 7337,
      "Ġng": 7338,
      "Ġregression": 7339,
      "iscuss": 7340,
      "oom": 7341,
      "Ġtumors": 7342,
      "Ġodd": 7343,
      "Ġstability": 7344,
      "Ġtransf": 7345,
      "ashion": 7346,
      "Ġdependent": 7347,
      "BI": 7348,
      "ĠSpec": 7349,
      "Ġextends": 7350,
      "Phys": 7351,
      "ĠSal": 7352,
      "ĠMD": 7353,
      "ĠMS": 7354,
      "chron": 7355,
      "Ġnom": 7356,
      "ĠDE": 7357,
      "Ġconsists": 7358,
      "byte": 7359,
      "ĠBel": 7360,
      "ducing": 7361,
      "Ġstrategies": 7362,
      "Ġcrystal": 7363,
      "Ġemission": 7364,
      "Ġrecognized": 7365,
      "Ġneurons": 7366,
      "Ġdocuments": 7367,
      "ipl": 7368,
      "Ġadvert": 7369,
      "Ġpert": 7370,
      "Ġcoh": 7371,
      "ĠAdd": 7372,
      "Ġviews": 7373,
      "icular": 7374,
      "emb": 7375,
      "Ġadults": 7376,
      "Ġcharacteristic": 7377,
      "oration": 7378,
      "Ġsale": 7379,
      "riday": 7380,
      "Ġnative": 7381,
      "rie": 7382,
      "Ġtemplate": 7383,
      "ĠLouis": 7384,
      "Ġestimates": 7385,
      "dep": 7386,
      "à¦": 7387,
      "Ġordered": 7388,
      "aper": 7389,
      "perties": 7390,
      "128": 7391,
      "Ð¼": 7392,
      "Ġresource": 7393,
      "ĠUse": 7394,
      "agon": 7395,
      "Ġcolon": 7396,
      "values": 7397,
      "}^{(": 7398,
      "Ġskills": 7399,
      "Ġeasier": 7400,
      "find": 7401,
      "Ġwarm": 7402,
      "ĠJew": 7403,
      "III": 7404,
      "Ġexamination": 7405,
      "Ġ1111": 7406,
      "ani": 7407,
      "ĠAM": 7408,
      "month": 7409,
      "untu": 7410,
      "Ġdram": 7411,
      "Ġâī": 7412,
      "]);": 7413,
      "ĠJames": 7414,
      "neq": 7415,
      "Ġdivers": 7416,
      "Ġexceed": 7417,
      "Ġ51": 7418,
      "nson": 7419,
      "addr": 7420,
      "Ġlayers": 7421,
      "Ġeventually": 7422,
      "fill": 7423,
      "Ġfarm": 7424,
      "Ġtoler": 7425,
      "ĠÃĹ": 7426,
      "iences": 7427,
      "Â¶": 7428,
      "Ġfif": 7429,
      "axis": 7430,
      "Ġsignificance": 7431,
      "Run": 7432,
      "ĠProf": 7433,
      "2004": 7434,
      "Ġenhanced": 7435,
      "PI": 7436,
      "cut": 7437,
      "mation": 7438,
      "Ġmetric": 7439,
      "racellular": 7440,
      "Ġargues": 7441,
      "Create": 7442,
      "rot": 7443,
      "Ġsimulation": 7444,
      "sequently": 7445,
      "Ġembed": 7446,
      "del": 7447,
      "ĠMo": 7448,
      "ĠNews": 7449,
      ",{\\": 7450,
      "Ġsouth": 7451,
      "Ġbranch": 7452,
      "aine": 7453,
      "ĠInformation": 7454,
      "Ġunivers": 7455,
      "Ġindepend": 7456,
      "anol": 7457,
      "Ġcompact": 7458,
      "CK": 7459,
      "Ġil": 7460,
      "Ġmaps": 7461,
      "ensed": 7462,
      "Since": 7463,
      "Ġconsult": 7464,
      "minimal": 7465,
      "nor": 7466,
      "Ġorth": 7467,
      "Ġcharges": 7468,
      "wer": 7469,
      "Ġalloc": 7470,
      "Ġinstructions": 7471,
      "Ġbalance": 7472,
      "Ġgone": 7473,
      "Ġtwice": 7474,
      "ĠÃ©": 7475,
      "Ġdoll": 7476,
      "andard": 7477,
      "Ent": 7478,
      "ette": 7479,
      "ffff": 7480,
      "Ġtemperatures": 7481,
      "Ġannounced": 7482,
      "Ġexperienced": 7483,
      "ĠFrance": 7484,
      "Ġtraffic": 7485,
      "effect": 7486,
      "war": 7487,
      "----------": 7488,
      "Ġkids": 7489,
      "dim": 7490,
      "ĠSum": 7491,
      "Ġ46": 7492,
      "ogenesis": 7493,
      "asi": 7494,
      "Ġaccurate": 7495,
      "ĠMethod": 7496,
      "Ġmeant": 7497,
      "ĠPRO": 7498,
      "Content": 7499,
      "Ġplaintiffs": 7500,
      "prop": 7501,
      "Ġguide": 7502,
      "Ġfourth": 7503,
      "Ġhoriz": 7504,
      "Ġplastic": 7505,
      "Ġpred": 7506,
      "ĠInternet": 7507,
      ">,": 7508,
      "Ġcele": 7509,
      "ĠOnly": 7510,
      "Ġrelationships": 7511,
      "Ġelectrical": 7512,
      "Ġ2444": 7513,
      "ĠED": 7514,
      "Ġraise": 7515,
      "Ġ1997": 7516,
      "Ġsupra": 7517,
      "ACT": 7518,
      "Ġwel": 7519,
      "ĠDec": 7520,
      "Ġrequirement": 7521,
      "OOST": 7522,
      "Ġcos": 7523,
      "itable": 7524,
      "Ġdual": 7525,
      "ĠUp": 7526,
      "Ġ49": 7527,
      "Ġter": 7528,
      "Ġfabric": 7529,
      "Ġsynthesis": 7530,
      "_,": 7531,
      "Ġlad": 7532,
      "rank": 7533,
      "Ġarticles": 7534,
      "Ġemployee": 7535,
      "ABLE": 7536,
      "ĠANY": 7537,
      "Range": 7538,
      "request": 7539,
      "Ġproliferation": 7540,
      "Ġpathways": 7541,
      "Ġcardiac": 7542,
      "ĠMichael": 7543,
      "Ġduty": 7544,
      "Ġelection": 7545,
      "Button": 7546,
      "Ġchallenges": 7547,
      "ĠSoftware": 7548,
      "vo": 7549,
      "Ġcreat": 7550,
      "stat": 7551,
      "ella": 7552,
      "Ġinjection": 7553,
      "Ġspaces": 7554,
      "uli": 7555,
      "claim": 7556,
      "Ġaspects": 7557,
      "ben": 7558,
      "ician": 7559,
      "Ġchlor": 7560,
      "Ġpossess": 7561,
      "Ġabuse": 7562,
      "arian": 7563,
      "åĪ": 7564,
      "Ġdys": 7565,
      "sur": 7566,
      "Ġflat": 7567,
      "ĠIndeed": 7568,
      "Ste": 7569,
      "Ġcollabor": 7570,
      "GET": 7571,
      "mo": 7572,
      "ĠWell": 7573,
      "ĠObject": 7574,
      "ductor": 7575,
      "Ġaccompl": 7576,
      "Ġsupporting": 7577,
      "ĠEqu": 7578,
      "eless": 7579,
      "ĠServ": 7580,
      "ĠWhy": 7581,
      "Ġreverse": 7582,
      "Ġcommunities": 7583,
      "Ġpromote": 7584,
      "Ġneutral": 7585,
      "mosp": 7586,
      "ĠMex": 7587,
      "ollowing": 7588,
      "Stream": 7589,
      "Ġmotiv": 7590,
      "Ġabsolute": 7591,
      "Ġrelax": 7592,
      "Ġfocused": 7593,
      "Ãº": 7594,
      "Ġlen": 7595,
      "Ġconsent": 7596,
      "Ġsimultaneous": 7597,
      "Ġreducing": 7598,
      "Ġamounts": 7599,
      "Some": 7600,
      "mi": 7601,
      "Ġmonitoring": 7602,
      "Ġgalax": 7603,
      "?âĢĿ": 7604,
      "gence": 7605,
      "Ġdraft": 7606,
      "append": 7607,
      "Ġtargets": 7608,
      "Ġpayment": 7609,
      "mann": 7610,
      "ĠNone": 7611,
      "Ġcompetition": 7612,
      "Ġ\\>": 7613,
      "}({\\": 7614,
      "Ġmechanical": 7615,
      "Ġkilled": 7616,
      "Ġteams": 7617,
      "ERT": 7618,
      "etch": 7619,
      "Ġdenote": 7620,
      "Ġexplan": 7621,
      "Ġpotentially": 7622,
      "Ġpump": 7623,
      "Ġjobs": 7624,
      "Ġowners": 7625,
      "Ġdeliver": 7626,
      "Ġaccordance": 7627,
      "Ġwat": 7628,
      "Ġnam": 7629,
      "ĠEX": 7630,
      "Ġouter": 7631,
      "Ġacknow": 7632,
      "ĠDen": 7633,
      "Ġgoals": 7634,
      "Ġamino": 7635,
      "Ġrecording": 7636,
      "agnetic": 7637,
      "eding": 7638,
      "Ġpseud": 7639,
      "avel": 7640,
      "Ġinstant": 7641,
      "herent": 7642,
      "ato": 7643,
      "ĠSk": 7644,
      "riz": 7645,
      "Ġsuccessfully": 7646,
      "itely": 7647,
      "Ġ\\*": 7648,
      "Ġsurgical": 7649,
      "Ġdiabetes": 7650,
      "Ġrich": 7651,
      "Ġdisorder": 7652,
      "Ġdiscretion": 7653,
      ":\"": 7654,
      "CV": 7655,
      "otypes": 7656,
      "OW": 7657,
      "Ġhumans": 7658,
      "fonts": 7659,
      "antic": 7660,
      "unday": 7661,
      "ĠChurch": 7662,
      "rolog": 7663,
      "Ġlegisl": 7664,
      "odds": 7665,
      "Ġdisk": 7666,
      "ĠCheck": 7667,
      "law": 7668,
      "xc": 7669,
      "Ġstages": 7670,
      "ĠĠĠĠĠĠĠĠĠĠĠĠĠĠĠĠĠĠĠĠĠĠĠĠĠĠĠĠĠĠĠĠĠĠĠĠĠĠĠĠ": 7671,
      "Ġformal": 7672,
      "prefix": 7673,
      "Ġwhatever": 7674,
      "Ġinstalled": 7675,
      ")+": 7676,
      "112": 7677,
      "ĠFour": 7678,
      "Ġidx": 7679,
      "Ġjoin": 7680,
      "CIT": 7681,
      "android": 7682,
      "contin": 7683,
      "chen": 7684,
      "ya": 7685,
      "imately": 7686,
      "ĠKe": 7687,
      "Ġorders": 7688,
      "NT": 7689,
      "Ġnm": 7690,
      "Ġven": 7691,
      "ĠPress": 7692,
      "ogram": 7693,
      "Ġsole": 7694,
      "âĢĿ.": 7695,
      "ontal": 7696,
      "Ġhappens": 7697,
      "Ġaccepted": 7698,
      ".-": 7699,
      "qquad": 7700,
      "tes": 7701,
      "inates": 7702,
      "Ġspl": 7703,
      "ĠFin": 7704,
      "otherapy": 7705,
      "xp": 7706,
      "ĠBen": 7707,
      "Pos": 7708,
      "ĠPH": 7709,
      "ĠBr": 7710,
      "ĠBer": 7711,
      "Ġappearance": 7712,
      "Ġlab": 7713,
      "Ġremark": 7714,
      "documentclass": 7715,
      "ĠAfrica": 7716,
      "Ġfundamental": 7717,
      "ĠArch": 7718,
      "Ġbillion": 7719,
      "ĠLeg": 7720,
      "Ġmanager": 7721,
      "cis": 7722,
      "Ġok": 7723,
      "Ġbinary": 7724,
      "Ġclients": 7725,
      "Ġenable": 7726,
      "ĠÃł": 7727,
      "Ġcalling": 7728,
      "Ġdecisions": 7729,
      "Ġirre": 7730,
      "GC": 7731,
      "ĠBY": 7732,
      "Ġprincipal": 7733,
      "txt": 7734,
      "Ġconcerning": 7735,
      "reatment": 7736,
      "Ġconsumption": 7737,
      "ĠLi": 7738,
      "Post": 7739,
      "png": 7740,
      "ws": 7741,
      "azine": 7742,
      "Us": 7743,
      "card": 7744,
      "ĠAlex": 7745,
      "Ġcrime": 7746,
      "ĠEduc": 7747,
      "ensions": 7748,
      "Ġunderstood": 7749,
      "Ġhypothesis": 7750,
      "ĠVirgin": 7751,
      "Ġinstruction": 7752,
      "ipping": 7753,
      "Ġdaughter": 7754,
      "Ġemployment": 7755,
      "ĠÏĥ": 7756,
      "nbsp": 7757,
      "ĠJer": 7758,
      "ropy": 7759,
      "Ġreplaced": 7760,
      "SR": 7761,
      "aria": 7762,
      "Ġpropos": 7763,
      "Ġneither": 7764,
      "ĠInf": 7765,
      "Ġrecall": 7766,
      "Ġrepresentative": 7767,
      "CHAR": 7768,
      "Head": 7769,
      "atric": 7770,
      "ĠHD": 7771,
      "ĠRE": 7772,
      "Ġdiscovered": 7773,
      "Ġspectral": 7774,
      "Ġmutant": 7775,
      "Part": 7776,
      "vector": 7777,
      "Det": 7778,
      "Ġcart": 7779,
      "ĠĠĠĠĠĠĠĠĠĠĠĠĠĠĠĠĠĠĠĠĠĠĠĠĠĠĠĠĠĠĠĠĠ": 7780,
      "onday": 7781,
      "2001": 7782,
      "ernel": 7783,
      "Ġlinked": 7784,
      "possible": 7785,
      "Ġ52": 7786,
      "Ġstrugg": 7787,
      "Ġvisible": 7788,
      "Ġmagnitude": 7789,
      "Ġconflict": 7790,
      "ua": 7791,
      "dt": 7792,
      "oder": 7793,
      "expected": 7794,
      "Two": 7795,
      "ander": 7796,
      "Ġscene": 7797,
      "Ġflux": 7798,
      "ĠEngland": 7799,
      "Ġ&\\": 7800,
      "kl": 7801,
      "Ġce": 7802,
      "Ġ58": 7803,
      "Ġpursu": 7804,
      "Ġassumption": 7805,
      "Ġopposite": 7806,
      "dy": 7807,
      "eles": 7808,
      "Ġwouldn": 7809,
      "Ġguilty": 7810,
      "Ġdelet": 7811,
      "Ġknows": 7812,
      "Ġproportion": 7813,
      "Oh": 7814,
      "Ġtranscript": 7815,
      "Ġdetermining": 7816,
      "Ġinflammatory": 7817,
      "ĠFlorida": 7818,
      "etime": 7819,
      "}{-": 7820,
      "END": 7821,
      "Ġphoto": 7822,
      "Ġ0000": 7823,
      "tex": 7824,
      "Ġeffectively": 7825,
      "Ġincidence": 7826,
      "Ġcorrespond": 7827,
      "Script": 7828,
      "Ġsys": 7829,
      "idity": 7830,
      "igger": 7831,
      "never": 7832,
      "Ġcouldn": 7833,
      "Ġpowerful": 7834,
      "dden": 7835,
      "module": 7836,
      "iliar": 7837,
      "Ġapoptosis": 7838,
      "Gu": 7839,
      "real": 7840,
      "edef": 7841,
      "omer": 7842,
      "Ġcogn": 7843,
      "ĠMult": 7844,
      "ĠWil": 7845,
      "ĠPet": 7846,
      "Ġoffense": 7847,
      "ursor": 7848,
      "Ġspatial": 7849,
      "Ġgap": 7850,
      "ĠIV": 7851,
      "ĠSing": 7852,
      "Ġesc": 7853,
      "Ġfeeling": 7854,
      "ĠLeague": 7855,
      "ynomial": 7856,
      "Ġassumed": 7857,
      "ĠAPI": 7858,
      "Ġmeta": 7859,
      "ĠMag": 7860,
      "ĠFederal": 7861,
      "Ġclar": 7862,
      "Ġrespective": 7863,
      "Ġautomatically": 7864,
      "ĠWilliam": 7865,
      "Ġgate": 7866,
      "Ġincident": 7867,
      "FIG": 7868,
      "Why": 7869,
      "orrow": 7870,
      "âĢĿ,": 7871,
      "Ġdirectory": 7872,
      "Ġcompound": 7873,
      "Ġprofiles": 7874,
      "BD": 7875,
      "ĠMass": 7876,
      "***": 7877,
      "019": 7878,
      "Ġcollege": 7879,
      "Ġadvice": 7880,
      "ih": 7881,
      "uzz": 7882,
      "Ġinvent": 7883,
      "Ġexplore": 7884,
      "Ġphotos": 7885,
      "Ġfer": 7886,
      "eting": 7887,
      "upg": 7888,
      "Ġcompre": 7889,
      "Ġ96": 7890,
      "}_\\": 7891,
      "American": 7892,
      "Ġmo": 7893,
      "Ġstreet": 7894,
      "irable": 7895,
      "Hz": 7896,
      "Ġbias": 7897,
      "-(": 7898,
      "ko": 7899,
      "Ġleaving": 7900,
      "Ġtransformation": 7901,
      "Ġdifferential": 7902,
      "REF": 7903,
      "ĠPac": 7904,
      "dule": 7905,
      "ĠProject": 7906,
      "Manager": 7907,
      "mode": 7908,
      "Ġtrain": 7909,
      "regulated": 7910,
      "```": 7911,
      "ows": 7912,
      "rium": 7913,
      "---------": 7914,
      "Ġintegrated": 7915,
      "Ġconcern": 7916,
      "Ġunsigned": 7917,
      "GL": 7918,
      "even": 7919,
      "Cell": 7920,
      "PCR": 7921,
      "dat": 7922,
      "vals": 7923,
      "Ġ1990": 7924,
      "Ġmixture": 7925,
      "Ġtheoret": 7926,
      "Ġwaste": 7927,
      "Ġentirely": 7928,
      "$(": 7929,
      "-*": 7930,
      "ympt": 7931,
      "ci": 7932,
      "Ġ}\\": 7933,
      "Ġradius": 7934,
      "ĠDemocr": 7935,
      "uesday": 7936,
      "display": 7937,
      "message": 7938,
      "~,": 7939,
      "ĠUN": 7940,
      "Ġobservation": 7941,
      "ĠMedical": 7942,
      "More": 7943,
      "va": 7944,
      "Ġlicense": 7945,
      "ĠFacebook": 7946,
      "Ġbelieved": 7947,
      "oral": 7948,
      "ĠSocial": 7949,
      "Ġjournal": 7950,
      "ÂłčĊ": 7951,
      "bour": 7952,
      "when": 7953,
      "search": 7954,
      "Ġchannels": 7955,
      "Ġblocks": 7956,
      "Layout": 7957,
      "Ġtom": 7958,
      "phen": 7959,
      "009": 7960,
      "Ġconcluded": 7961,
      "Ġforming": 7962,
      "Ġends": 7963,
      "Ġfinished": 7964,
      "ĠmiRNA": 7965,
      "Ġconstructed": 7966,
      "Ġthanks": 7967,
      "2007": 7968,
      "Ġburn": 7969,
      "riers": 7970,
      "Ġ54": 7971,
      "Ag": 7972,
      "Ġsi": 7973,
      "Ġdisplayed": 7974,
      "Am": 7975,
      "Ġzone": 7976,
      "vas": 7977,
      "ĠBrown": 7978,
      "enance": 7979,
      "Ob": 7980,
      "ĠIts": 7981,
      "ĠWill": 7982,
      "setlength": 7983,
      "Ġmedian": 7984,
      "blog": 7985,
      "ventions": 7986,
      "Ġglucose": 7987,
      "amsmath": 7988,
      "Ġsubstantially": 7989,
      "Ġmethyl": 7990,
      "Ġconversion": 7991,
      "Ġperman": 7992,
      "ĠAdditionally": 7993,
      "ĠĠĠĠĠĠĠĠĠĠĠĠčĊ": 7994,
      "Ġclusters": 7995,
      "pad": 7996,
      "Ġnotes": 7997,
      "ĠPy": 7998,
      "ssymb": 7999,
      ")|": 8000,
      "env": 8001,
      "amssymb": 8002,
      "ĠReview": 8003,
      "ampionship": 8004,
      "ĠGal": 8005,
      "\"}),": 8006,
      "amsfonts": 8007,
      "clear": 8008,
      "Ġimplemented": 8009,
      "Ġamaz": 8010,
      "eness": 8011,
      "ading": 8012,
      "bsy": 8013,
      "arr": 8014,
      "Ġsudden": 8015,
      "ysym": 8016,
      "Ġsupports": 8017,
      "Ġhybrid": 8018,
      "Ġpicking": 8019,
      "Ġatmosp": 8020,
      "mathrs": 8021,
      "Ġinfo": 8022,
      "amsbsy": 8023,
      "wasysym": 8024,
      "idemargin": 8025,
      "oddsidemargin": 8026,
      "upgreek": 8027,
      "mathrsfs": 8028,
      "ĠEnd": 8029,
      "ĠJes": 8030,
      "Ġspeech": 8031,
      "aurant": 8032,
      "Ġscatter": 8033,
      "Collect": 8034,
      "Ġens": 8035,
      "oplas": 8036,
      "yles": 8037,
      "çĶ": 8038,
      "Ġmargin": 8039,
      "Ġcontroller": 8040,
      "Ġtherapeutic": 8041,
      "arks": 8042,
      "ivered": 8043,
      "ĠGood": 8044,
      "Ġ1995": 8045,
      "Rel": 8046,
      "foo": 8047,
      "ĠFre": 8048,
      "Ġintr": 8049,
      "Ġ99": 8050,
      "Ġthousands": 8051,
      "aid": 8052,
      "avas": 8053,
      "Ġrecip": 8054,
      "ĠAustralia": 8055,
      "mole": 8056,
      "rosc": 8057,
      "ĠPlease": 8058,
      "Ġdirector": 8059,
      "ĠDefendant": 8060,
      "zeta": 8061,
      "Ġfill": 8062,
      "icht": 8063,
      "âĢ¯": 8064,
      "Ġvon": 8065,
      "ĠCentral": 8066,
      "Ġinduction": 8067,
      "dag": 8068,
      "Ġ101": 8069,
      "Ġ400": 8070,
      "Ġroute": 8071,
      "Ġscreening": 8072,
      "Ġmarried": 8073,
      "package": 8074,
      "ori": 8075,
      "oster": 8076,
      "Ġdegrad": 8077,
      "Ġelectrode": 8078,
      "TG": 8079,
      "ĠSociety": 8080,
      "ĠLife": 8081,
      "Psi": 8082,
      "util": 8083,
      "Ġspend": 8084,
      "Ġsubmitted": 8085,
      "Ġspirit": 8086,
      "reement": 8087,
      "ologic": 8088,
      "Ġorganic": 8089,
      "hedul": 8090,
      "Ġdies": 8091,
      "Ġreact": 8092,
      "Ġcalc": 8093,
      "Ġnecessarily": 8094,
      "Ġvote": 8095,
      "inson": 8096,
      "--------------": 8097,
      "private": 8098,
      "%),": 8099,
      "Page": 8100,
      "iples": 8101,
      "Status": 8102,
      "Note": 8103,
      "ĠGold": 8104,
      "auss": 8105,
      "ä½": 8106,
      "Ġyes": 8107,
      "Ġfragment": 8108,
      "ĠÂµ": 8109,
      "Ġdescribes": 8110,
      "yr": 8111,
      "Ġbind": 8112,
      "root": 8113,
      "Ġweap": 8114,
      "\\^": 8115,
      "čč": 8116,
      "Ġusual": 8117,
      "These": 8118,
      "Ġcorrelated": 8119,
      "ĠRobert": 8120,
      "diff": 8121,
      "ĠLike": 8122,
      "orted": 8123,
      "prod": 8124,
      "Ġ===": 8125,
      "Ġperiods": 8126,
      "Ġclosest": 8127,
      "Ġsought": 8128,
      "Ġfilled": 8129,
      "ĠSH": 8130,
      "ĠLong": 8131,
      "Ġmanifest": 8132,
      "111": 8133,
      "ĠEvery": 8134,
      "ups": 8135,
      "Ġseek": 8136,
      "Te": 8137,
      "Ġlic": 8138,
      "ulus": 8139,
      "Ġsegment": 8140,
      "ears": 8141,
      "Ġdifferentiation": 8142,
      "water": 8143,
      "Ġlig": 8144,
      "-----------": 8145,
      "apse": 8146,
      "Ġsin": 8147,
      "222": 8148,
      "Ġcrow": 8149,
      "ĠPA": 8150,
      "ĠLuc": 8151,
      "++)": 8152,
      "Ġcalculations": 8153,
      "ĠOffice": 8154,
      "fi": 8155,
      "Ġhaven": 8156,
      "Ġassign": 8157,
      "Ġice": 8158,
      "ĠOffic": 8159,
      "Ġ[[": 8160,
      "ĠAccordingly": 8161,
      "Mat": 8162,
      "åĲ": 8163,
      "Ġplur": 8164,
      "ĠThomas": 8165,
      "Ġsimpl": 8166,
      "]]": 8167,
      "ĠĠĠĠĠĠĠĠĠĠĠĠĠĠĠĠĠĠĠĠĠĠĠĠĠĠĠĠĠĠĠĠĠĠ": 8168,
      "Ġphil": 8169,
      "Ġrotation": 8170,
      "tri": 8171,
      "hether": 8172,
      "erman": 8173,
      "Ġmodify": 8174,
      "ĠÎµ": 8175,
      "-------------": 8176,
      "Ġconcerns": 8177,
      "*^": 8178,
      "Gl": 8179,
      "Tem": 8180,
      "ĠIg": 8181,
      "ĠCL": 8182,
      "odium": 8183,
      "Ġdisorders": 8184,
      "aturday": 8185,
      "Ġmiles": 8186,
      "008": 8187,
      "oday": 8188,
      "ĠExt": 8189,
      ")))": 8190,
      "Ġrecognition": 8191,
      "Ġbacterial": 8192,
      "BM": 8193,
      "Ġhelps": 8194,
      "Ġclosely": 8195,
      "FR": 8196,
      "Ġinvolves": 8197,
      "ĠPlan": 8198,
      "Ġfeedback": 8199,
      "Ġ$|": 8200,
      "Ġprimarily": 8201,
      "Ġamb": 8202,
      "Ġcommitted": 8203,
      "Ġseconds": 8204,
      "Ġviolation": 8205,
      "Ġdamages": 8206,
      "ĠTheir": 8207,
      "ĠFil": 8208,
      "Ġprinciple": 8209,
      "ĠEst": 8210,
      "ĠOS": 8211,
      "media": 8212,
      "ulture": 8213,
      "Ġconviction": 8214,
      "Attribute": 8215,
      "Po": 8216,
      "Ġstret": 8217,
      "Ġaren": 8218,
      "Ġadhes": 8219,
      "Ġpal": 8220,
      "Ġtour": 8221,
      "Ġgast": 8222,
      "ĠER": 8223,
      "ĠUs": 8224,
      "Ġhelped": 8225,
      "Ġlocations": 8226,
      "ĠCorpor": 8227,
      "Ġtail": 8228,
      "Ġquarter": 8229,
      "Ġsurfaces": 8230,
      "Ġeditor": 8231,
      "fficients": 8232,
      "Point": 8233,
      "Ġ1000": 8234,
      "ĠBas": 8235,
      "GR": 8236,
      "hr": 8237,
      "stack": 8238,
      "Ġvalve": 8239,
      "]{};": 8240,
      "Ġcontributions": 8241,
      "Ġaggreg": 8242,
      "Ġsplit": 8243,
      "anta": 8244,
      "ude": 8245,
      "Ġcontainer": 8246,
      "avascript": 8247,
      "Ne": 8248,
      "ĠBack": 8249,
      "ĠRR": 8250,
      "ociated": 8251,
      "Ġexamine": 8252,
      "VA": 8253,
      "ĠGreat": 8254,
      "oids": 8255,
      "Ġidentical": 8256,
      "ĠSuper": 8257,
      "Ġcategories": 8258,
      "adian": 8259,
      "ĠInterest": 8260,
      ")),": 8261,
      "BR": 8262,
      "Call": 8263,
      "HS": 8264,
      "Ġgrid": 8265,
      "dri": 8266,
      "ĠOnce": 8267,
      "Ġinvari": 8268,
      "Ġextend": 8269,
      "May": 8270,
      "Ġunable": 8271,
      "ĠMary": 8272,
      "ãģ®": 8273,
      "float": 8274,
      "Ġspot": 8275,
      "Ġmarkers": 8276,
      "'.": 8277,
      "theless": 8278,
      "ĠAnother": 8279,
      "Ġclaimed": 8280,
      "Although": 8281,
      "Ġlearned": 8282,
      "Ġencoding": 8283,
      "ivari": 8284,
      "center": 8285,
      "ĠÐ¿": 8286,
      ")}{": 8287,
      "iations": 8288,
      "});": 8289,
      "ĠSou": 8290,
      "Ġdiagram": 8291,
      "${": 8292,
      "Ġgender": 8293,
      "ĠWIT": 8294,
      "Ġintention": 8295,
      "Ġinitially": 8296,
      "asy": 8297,
      "ĠNor": 8298,
      "ĠĠĠĠĠĠĠĠĠĠĠĠĠĠĠĠĠĠĠĠĠĠĠĠĠĠĠĠĠĠĠĠĠĠĠĠĠĠĠĠĠĠĠ": 8299,
      "ĠJava": 8300,
      "Ġ59": 8301,
      "property": 8302,
      "ohn": 8303,
      "attice": 8304,
      "aration": 8305,
      "Ġnine": 8306,
      "Ġdisput": 8307,
      "region": 8308,
      "mes": 8309,
      "Ġpoll": 8310,
      "Ġannual": 8311,
      "Ġwaiting": 8312,
      "iser": 8313,
      "ĠIP": 8314,
      "Ġshut": 8315,
      "2006": 8316,
      "IGHT": 8317,
      "Ġrat": 8318,
      "Ġroles": 8319,
      "Off": 8320,
      "his": 8321,
      "ounter": 8322,
      ")$$": 8323,
      "Ġdiameter": 8324,
      "ĠmiR": 8325,
      "legal": 8326,
      "Tex": 8327,
      "otox": 8328,
      "quare": 8329,
      "Ġchart": 8330,
      "elihood": 8331,
      "Ġsizes": 8332,
      "ĠKore": 8333,
      "aintenance": 8334,
      "Ġconsequence": 8335,
      "Ġincubated": 8336,
      "Hel": 8337,
      "Ġdepartment": 8338,
      "Ġsymmetry": 8339,
      "Ġforced": 8340,
      "Ġacids": 8341,
      "::::": 8342,
      "Ġtheorem": 8343,
      "Ġsolve": 8344,
      "ameters": 8345,
      "Ġearth": 8346,
      "Ġuncertain": 8347,
      "tings": 8348,
      "Ġcoupled": 8349,
      "ACE": 8350,
      "Ġmanaged": 8351,
      "Ġmitochondrial": 8352,
      "FO": 8353,
      "ĠÐ²": 8354,
      "\\]),": 8355,
      "Ġinfected": 8356,
      "Ġpreparation": 8357,
      "Ġpolicies": 8358,
      "Ġenforce": 8359,
      "Ġpractices": 8360,
      "Ġinformed": 8361,
      "inition": 8362,
      "unicip": 8363,
      "Ġcausing": 8364,
      "NC": 8365,
      "ami": 8366,
      "utory": 8367,
      "unit": 8368,
      "Ġintellig": 8369,
      "Ġacquired": 8370,
      "Fe": 8371,
      "Ġasc": 8372,
      "terior": 8373,
      "Ġrating": 8374,
      "Ġpolynomial": 8375,
      "ĠAndroid": 8376,
      "unsigned": 8377,
      "Ġadopted": 8378,
      "Before": 8379,
      "Rem": 8380,
      "attr": 8381,
      "Ġrecover": 8382,
      "Ġstarts": 8383,
      "Ġsyndrome": 8384,
      "riev": 8385,
      "Ġdriven": 8386,
      "fit": 8387,
      "wing": 8388,
      "Another": 8389,
      "Ġmaintained": 8390,
      "ILITY": 8391,
      "Are": 8392,
      "itutions": 8393,
      "Ġfaster": 8394,
      "ova": 8395,
      "Ġproved": 8396,
      "STAT": 8397,
      "ĠCorp": 8398,
      "(*": 8399,
      ")'": 8400,
      "Well": 8401,
      "Ġpreced": 8402,
      "('',": 8403,
      "Ġsecure": 8404,
      "Ġpaint": 8405,
      "utely": 8406,
      "tyle": 8407,
      "ĠQue": 8408,
      "Ġlesions": 8409,
      "Ġintegral": 8410,
      "Ġdiagnostic": 8411,
      "119": 8412,
      "NOT": 8413,
      "Ġcov": 8414,
      "Ġseat": 8415,
      "Ġrepair": 8416,
      "Ġlargely": 8417,
      "Ġcoefficient": 8418,
      "Tra": 8419,
      "Ġdepos": 8420,
      "lik": 8421,
      "background": 8422,
      "Ġthy": 8423,
      "Ġgreatest": 8424,
      "Ġdependence": 8425,
      "method": 8426,
      "ĠMer": 8427,
      "iana": 8428,
      "Ġprobe": 8429,
      "Ġcircul": 8430,
      "Port": 8431,
      "hal": 8432,
      "Ġbiom": 8433,
      "Ġseparated": 8434,
      "riend": 8435,
      "should": 8436,
      "power": 8437,
      "ĠLog": 8438,
      "Ġoverl": 8439,
      "eger": 8440,
      "Ġguy": 8441,
      "aterials": 8442,
      "Ġleader": 8443,
      "Ġneglig": 8444,
      "Cons": 8445,
      "han": 8446,
      "Ġcalculation": 8447,
      "Ã¼r": 8448,
      "ĠIsrael": 8449,
      "Ġprevalence": 8450,
      "Next": 8451,
      "Ġsides": 8452,
      "ĠLib": 8453,
      "ĠNetwork": 8454,
      "Ġfunds": 8455,
      "Ġpropag": 8456,
      "ĠVirginia": 8457,
      "Ġ*)": 8458,
      "Ġcontem": 8459,
      "Ġpractical": 8460,
      "ĠParty": 8461,
      "Ġthickness": 8462,
      "ÑĮ": 8463,
      "ĠHamilton": 8464,
      "][@": 8465,
      "ĠHel": 8466,
      "Ġjour": 8467,
      "Ġresearchers": 8468,
      "Ġtick": 8469,
      "Ġrough": 8470,
      "Ġseeing": 8471,
      "nel": 8472,
      "ĠRussia": 8473,
      "etermine": 8474,
      "Ġvertical": 8475,
      "ilib": 8476,
      "Ġsupposed": 8477,
      "MENT": 8478,
      "Ñı": 8479,
      "Ġquad": 8480,
      "STR": 8481,
      "scrib": 8482,
      "rif": 8483,
      "Ġdecide": 8484,
      "Ġsurrounding": 8485,
      "Link": 8486,
      "Ġble": 8487,
      "eft": 8488,
      "HC": 8489,
      "IX": 8490,
      "Ġmapping": 8491,
      "Ġsector": 8492,
      "Ġminimal": 8493,
      "ĠCarol": 8494,
      "Override": 8495,
      "Ġdischarge": 8496,
      "Ġfashion": 8497,
      "ĠSign": 8498,
      "Ġstabil": 8499,
      "obj": 8500,
      "chem": 8501,
      "Ġofficials": 8502,
      "Ġ1994": 8503,
      "Ġbacteria": 8504,
      "ket": 8505,
      "creen": 8506,
      "NAME": 8507,
      "Ġvacuum": 8508,
      "ĠArmy": 8509,
      "Ġemotional": 8510,
      "Ġfans": 8511,
      "irty": 8512,
      "atients": 8513,
      "ĠGeorge": 8514,
      "Ġmessages": 8515,
      "Ġbudget": 8516,
      "Ġtit": 8517,
      "ppat": 8518,
      "then": 8519,
      "Ġcontinues": 8520,
      "Ġdivide": 8521,
      "Ġbehaviour": 8522,
      "icago": 8523,
      "eren": 8524,
      "Ġperipher": 8525,
      "1999": 8526,
      "positive": 8527,
      "ĠRussian": 8528,
      "Ġenzyme": 8529,
      "Ġscientific": 8530,
      "Ġpartner": 8531,
      "TYPE": 8532,
      "Ġmic": 8533,
      "Ġdiscovery": 8534,
      "Ġdelivered": 8535,
      "Ġpreferred": 8536,
      "1000": 8537,
      "rition": 8538,
      "å¤": 8539,
      "aped": 8540,
      "Ġ53": 8541,
      "rport": 8542,
      "Ð´": 8543,
      "ĠSN": 8544,
      "Ġ110": 8545,
      "Ġfraud": 8546,
      "Ġnod": 8547,
      "exec": 8548,
      "server": 8549,
      "Result": 8550,
      "ĠControl": 8551,
      "hol": 8552,
      "Ġmenu": 8553,
      "ĠModel": 8554,
      "Ġmerely": 8555,
      "Ġpeace": 8556,
      "Ġaccounts": 8557,
      "Supplementary": 8558,
      "Ġpin": 8559,
      "Ġeconomy": 8560,
      "Ġphosphory": 8561,
      "Check": 8562,
      "Ġfellow": 8563,
      "Ġfreedom": 8564,
      "fol": 8565,
      "ricular": 8566,
      "URL": 8567,
      ":**": 8568,
      "Find": 8569,
      "ĠCare": 8570,
      "Ġradi": 8571,
      "Ã¨": 8572,
      "ito": 8573,
      "ĠMa": 8574,
      "alls": 8575,
      "Ġcarrier": 8576,
      "Ġurl": 8577,
      "ĠSTAT": 8578,
      "Function": 8579,
      "Ġtube": 8580,
      "igan": 8581,
      "Ġenerg": 8582,
      "ĠAppeals": 8583,
      "FP": 8584,
      "00000": 8585,
      "Ġconsc": 8586,
      "Ġproceedings": 8587,
      "Other": 8588,
      "Ġalpha": 8589,
      "Ġ57": 8590,
      "ãĢģ": 8591,
      "Ġprohib": 8592,
      "ĠBook": 8593,
      "endants": 8594,
      "ĠJohnson": 8595,
      "approx": 8596,
      "iscussion": 8597,
      "bd": 8598,
      "Ġcash": 8599,
      "ĠTom": 8600,
      "ĠFore": 8601,
      "Ġkill": 8602,
      "Ġexperiences": 8603,
      "Ġdesc": 8604,
      "Ġlowest": 8605,
      "ĠPo": 8606,
      "Ġunion": 8607,
      "Ġintermediate": 8608,
      "Ġclock": 8609,
      "google": 8610,
      "Ġforest": 8611,
      "Ġdocumentation": 8612,
      "VC": 8613,
      "Ġtight": 8614,
      "ĠNon": 8615,
      "show": 8616,
      "\\>": 8617,
      "Ġpp": 8618,
      "ĠSP": 8619,
      "ocard": 8620,
      "Ġflag": 8621,
      "Ġpassing": 8622,
      "Ġjoined": 8623,
      "IES": 8624,
      "ednes": 8625,
      "Ġded": 8626,
      "ĠErr": 8627,
      "Ġ62": 8628,
      "Ġdepression": 8629,
      "VE": 8630,
      "orig": 8631,
      "Ġfish": 8632,
      "aven": 8633,
      "Ġactivated": 8634,
      "grade": 8635,
      "Ġcoefficients": 8636,
      "Ġbes": 8637,
      "ifold": 8638,
      "Ġ+/-": 8639,
      "Ġgrown": 8640,
      "ĠAtl": 8641,
      "./": 8642,
      "XT": 8643,
      "]\\": 8644,
      "uting": 8645,
      "Ġsigns": 8646,
      "ĠCommon": 8647,
      "ĠApple": 8648,
      "Ġconcerned": 8649,
      "ĠFrank": 8650,
      "nic": 8651,
      "Ġdos": 8652,
      "vee": 8653,
      "Ġbecoming": 8654,
      "Ġrid": 8655,
      "Ġapplying": 8656,
      "ĠExper": 8657,
      "sign": 8658,
      ").$$": 8659,
      "}},": 8660,
      "Ġguidelines": 8661,
      "2003": 8662,
      "FFFF": 8663,
      "Ġcorrectly": 8664,
      "rh": 8665,
      "rolled": 8666,
      "ĠDC": 8667,
      "Ġcorner": 8668,
      "ipt": 8669,
      "ĠFund": 8670,
      "ĠEnt": 8671,
      "Ġviral": 8672,
      "ĠâĢ¦": 8673,
      "Ġperforming": 8674,
      "LECT": 8675,
      "ASK": 8676,
      "otted": 8677,
      "ĠTrust": 8678,
      "{(": 8679,
      "Ġreactions": 8680,
      "ĠBre": 8681,
      "Thanks": 8682,
      "Web": 8683,
      "Ġcapture": 8684,
      "&&": 8685,
      "rine": 8686,
      "Ġsheet": 8687,
      "dx": 8688,
      "high": 8689,
      "hspace": 8690,
      "Ġended": 8691,
      "Ġdepart": 8692,
      "Ġadjacent": 8693,
      "Ġpurchased": 8694,
      "ĠTur": 8695,
      "ĠĠĠĠĠĠĠĠĠĠĠĠĠĠĠĠĠĠĠĠĠĠĠĠĠĠĠĠĠĠĠĠĠĠĠĠĠ": 8696,
      "ĠChild": 8697,
      "ĠSu": 8698,
      "Ġaccident": 8699,
      "Ġstatistically": 8700,
      "ĠSecret": 8701,
      "Ġhydrogen": 8702,
      "Ġfell": 8703,
      "ĠCS": 8704,
      "Ġsea": 8705,
      "Ġmodes": 8706,
      "Ġregulatory": 8707,
      "Ġstopped": 8708,
      "DP": 8709,
      "aft": 8710,
      "Ġevident": 8711,
      "ji": 8712,
      "Ġalk": 8713,
      "click": 8714,
      "Ġplain": 8715,
      "2005": 8716,
      "Ġfacilities": 8717,
      "Mode": 8718,
      "ushed": 8719,
      "description": 8720,
      "Ġinnov": 8721,
      "ĠAttorney": 8722,
      "Ġcomprehens": 8723,
      "Frame": 8724,
      "apped": 8725,
      "ĠTechnology": 8726,
      "alty": 8727,
      "Ġcontents": 8728,
      "Ġshell": 8729,
      "250": 8730,
      "Ġmetabolism": 8731,
      "grad": 8732,
      "Ġpet": 8733,
      "urse": 8734,
      "ifts": 8735,
      "Ġbroken": 8736,
      "ĠAfrican": 8737,
      "vial": 8738,
      "ena": 8739,
      "Ġped": 8740,
      "conduct": 8741,
      "Ġprofession": 8742,
      "Ġstrains": 8743,
      "Ġclimate": 8744,
      "ployment": 8745,
      "Ġmutation": 8746,
      "ĠEducation": 8747,
      "Base": 8748,
      "SQL": 8749,
      "ja": 8750,
      "Ġrig": 8751,
      "ĠOrder": 8752,
      "iÃ³n": 8753,
      "Ġsmart": 8754,
      "Ġgrade": 8755,
      "ĠWilliams": 8756,
      "Instance": 8757,
      "Ġassemb": 8758,
      "Ġgrav": 8759,
      "Go": 8760,
      "inical": 8761,
      "Ġmeth": 8762,
      "ĠSam": 8763,
      "Ã©s": 8764,
      "lines": 8765,
      "Ġbeta": 8766,
      "ĠProposition": 8767,
      "Ġnegot": 8768,
      "Ġske": 8769,
      "ĠBill": 8770,
      "product": 8771,
      "Ġrapidly": 8772,
      "gar": 8773,
      "orough": 8774,
      "113": 8775,
      "Ġsimulations": 8776,
      "Ġsemicon": 8777,
      "Ġsan": 8778,
      "Ġsulf": 8779,
      "ĠĠĠĠĠĠĠĠĠĠĠĠĠĠĠĠĠĠĠĠĠĠĠĠĠĠĠĠĠĠĠĠĠĠĠĠĠĠĠĠĠĠĠĠĠ": 8780,
      "Ġassistance": 8781,
      "Init": 8782,
      "Ġacting": 8783,
      "scill": 8784,
      "Ġsubsequently": 8785,
      "ĠSecurity": 8786,
      "ĠAcc": 8787,
      "ĠMad": 8788,
      "Ġimplied": 8789,
      "ĠHospital": 8790,
      "Ġ66": 8791,
      "Ġmatters": 8792,
      "cribed": 8793,
      "Ġasking": 8794,
      "ellee": 8795,
      "Pa": 8796,
      "Ġimpossible": 8797,
      "ensus": 8798,
      "Ġ>=": 8799,
      "Ġreviewed": 8800,
      "Ġcond": 8801,
      "ĠEL": 8802,
      "150": 8803,
      "Ġsummar": 8804,
      "La": 8805,
      "ĠDev": 8806,
      "Ġcommission": 8807,
      "Ġvariants": 8808,
      "venue": 8809,
      "oned": 8810,
      "Ġpresum": 8811,
      "Ġinhibitor": 8812,
      "Ġsufficiently": 8813,
      "mits": 8814,
      "vider": 8815,
      "Ġscal": 8816,
      "ATA": 8817,
      "Ġmarriage": 8818,
      "Pi": 8819,
      "ĠBur": 8820,
      "oston": 8821,
      "Ġ85": 8822,
      "ĠAnalysis": 8823,
      "ĠmM": 8824,
      "ĠHen": 8825,
      "125": 8826,
      "Ġpublication": 8827,
      "Ġvaccine": 8828,
      "ednesday": 8829,
      "IAM": 8830,
      "\\}$": 8831,
      "Ġstaining": 8832,
      "Ġregister": 8833,
      "Ġoperators": 8834,
      "gy": 8835,
      "ĠStar": 8836,
      "=-": 8837,
      "DC": 8838,
      "omatic": 8839,
      "Ġsuscept": 8840,
      "cers": 8841,
      "lie": 8842,
      "ĠFed": 8843,
      "Ġ68": 8844,
      "Const": 8845,
      "Ġseparation": 8846,
      "avelength": 8847,
      "mal": 8848,
      "pdf": 8849,
      "Ġrect": 8850,
      "Ġproducing": 8851,
      "Ġtrip": 8852,
      "auge": 8853,
      "Ġdrawn": 8854,
      "SL": 8855,
      "ulator": 8856,
      "Ġprogression": 8857,
      "nections": 8858,
      "Ġcounts": 8859,
      "ĠZe": 8860,
      "Ġstimulation": 8861,
      "Ġsand": 8862,
      "Ġgel": 8863,
      "Ġhepat": 8864,
      "older": 8865,
      "Ġcohort": 8866,
      "Ġfinish": 8867,
      "ĠCap": 8868,
      "make": 8869,
      "Ġthereof": 8870,
      "eck": 8871,
      "Ġvariance": 8872,
      "empty": 8873,
      "ncy": 8874,
      "Filter": 8875,
      "ĠHuman": 8876,
      "Ġvision": 8877,
      "arden": 8878,
      "Ġadverse": 8879,
      "everal": 8880,
      "Ġdeaths": 8881,
      "Ret": 8882,
      "Ġexcluded": 8883,
      "102": 8884,
      "Ġsac": 8885,
      "ĠFriday": 8886,
      "105": 8887,
      "Ġknock": 8888,
      "OCK": 8889,
      "Ġye": 8890,
      "ochemical": 8891,
      "å®": 8892,
      "Ġpod": 8893,
      "Ġconve": 8894,
      "Ġchamber": 8895,
      "Ġwilling": 8896,
      "130": 8897,
      "Ġquantity": 8898,
      "Open": 8899,
      "Equals": 8900,
      "Ġcrucial": 8901,
      "WS": 8902,
      "late": 8903,
      "Ġsir": 8904,
      "Equal": 8905,
      "ĠSunday": 8906,
      "estic": 8907,
      "Ġneck": 8908,
      "Ġkernel": 8909,
      "Ġliability": 8910,
      "////////////////": 8911,
      "TF": 8912,
      "buffer": 8913,
      "à»": 8914,
      "ello": 8915,
      "Ġsubt": 8916,
      "Ñĭ": 8917,
      "Ġexpensive": 8918,
      "Ġ2020": 8919,
      "Ġinvestment": 8920,
      "Ġoriginally": 8921,
      "ĠText": 8922,
      "ĠMi": 8923,
      "Ġjump": 8924,
      "Ġ1980": 8925,
      "Ġconference": 8926,
      "OM": 8927,
      "bool": 8928,
      "Description": 8929,
      "ĠAcadem": 8930,
      "Ġreligious": 8931,
      "'\\": 8932,
      "Ġadmitted": 8933,
      "Ġtruly": 8934,
      "liament": 8935,
      "TC": 8936,
      "bu": 8937,
      "}}^{": 8938,
      "ounce": 8939,
      "Ġbow": 8940,
      "Ġminute": 8941,
      "Ġdecreasing": 8942,
      "Ġrounded": 8943,
      "ARE": 8944,
      "types": 8945,
      ")}$": 8946,
      "Tab": 8947,
      "ibration": 8948,
      "ĠView": 8949,
      "si": 8950,
      "Ġpulse": 8951,
      "Ġcomplications": 8952,
      "Ġdiversity": 8953,
      "Ġtasks": 8954,
      "onym": 8955,
      "second": 8956,
      "access": 8957,
      "aska": 8958,
      "Ġfigures": 8959,
      "Ġyields": 8960,
      "Ġcorrection": 8961,
      "Ġyouth": 8962,
      "Ġcomposed": 8963,
      "Ġdispl": 8964,
      "aked": 8965,
      "ĠSpring": 8966,
      "<?": 8967,
      "vir": 8968,
      "Ġiter": 8969,
      "Ġreads": 8970,
      "Ġcomputed": 8971,
      "imensions": 8972,
      "ruptcy": 8973,
      "ECT": 8974,
      "GS": 8975,
      "Ġboot": 8976,
      "ĠHill": 8977,
      "Ġcomparable": 8978,
      "Ġfavorite": 8979,
      "................................": 8980,
      "OH": 8981,
      "split": 8982,
      "ÎŃ": 8983,
      "Ġrent": 8984,
      "urally": 8985,
      "asts": 8986,
      "DI": 8987,
      "fc": 8988,
      "gi": 8989,
      "Ġterr": 8990,
      "Ġfort": 8991,
      "Ġguys": 8992,
      "Ġmanufacturing": 8993,
      "ocyte": 8994,
      "Sm": 8995,
      "achment": 8996,
      "project": 8997,
      "Introduction": 8998,
      "system": 8999,
      "Ġessentially": 9000,
      "Ġhundreds": 9001,
      "ARRANT": 9002,
      "Block": 9003,
      "}+\\": 9004,
      "esome": 9005,
      "alloc": 9006,
      "Ġdesire": 9007,
      "ĠGeorg": 9008,
      "bp": 9009,
      "ila": 9010,
      "Ġdescript": 9011,
      "Ġbattery": 9012,
      "ĠIran": 9013,
      "isting": 9014,
      "minus": 9015,
      "eyer": 9016,
      "Ġextracted": 9017,
      "Ġtheoretical": 9018,
      "Ġprovisions": 9019,
      "Ġcatalyst": 9020,
      "Met": 9021,
      "gress": 9022,
      "some": 9023,
      "Ġoscill": 9024,
      "ĠCle": 9025,
      "emia": 9026,
      "anti": 9027,
      "ophy": 9028,
      "Ġmanip": 9029,
      "Ġextensive": 9030,
      "Ġseeking": 9031,
      "Product": 9032,
      "iverse": 9033,
      "Ġkeeping": 9034,
      "arl": 9035,
      "ĠRA": 9036,
      "Ġinflammation": 9037,
      "Ġpip": 9038,
      "Ġmaintenance": 9039,
      "aming": 9040,
      "endar": 9041,
      "Ġrequests": 9042,
      "Mult": 9043,
      "pers": 9044,
      "Ġsoil": 9045,
      "Ġsomewhat": 9046,
      "1998": 9047,
      "Ġreviews": 9048,
      "Ġcorresponds": 9049,
      "Ġnumerical": 9050,
      "\"]": 9051,
      "enth": 9052,
      "ĠSand": 9053,
      "Ġtreatments": 9054,
      "ursday": 9055,
      "ĠÏĢ": 9056,
      "Ġdefinitely": 9057,
      "Ġsatisfied": 9058,
      "iem": 9059,
      "mean": 9060,
      "Ġafford": 9061,
      "ĠJustice": 9062,
      ".^[@": 9063,
      "Spec": 9064,
      "Ġpapers": 9065,
      "astern": 9066,
      "160": 9067,
      "(_": 9068,
      "WR": 9069,
      "Ġrenal": 9070,
      "256": 9071,
      "ĠReport": 9072,
      "ĠObama": 9073,
      "Ġnerve": 9074,
      "Ġweather": 9075,
      "Ġcurves": 9076,
      "Default": 9077,
      "ifact": 9078,
      "018": 9079,
      "Ġfamiliar": 9080,
      "Ġlateral": 9081,
      "Ġplurality": 9082,
      "Sign": 9083,
      "Ġship": 9084,
      "\"}](": 9085,
      "Ġreceptors": 9086,
      "Ġversions": 9087,
      "/âĪĴ": 9088,
      "ione": 9089,
      "ĠDate": 9090,
      "Ġrub": 9091,
      "framework": 9092,
      "GINE": 9093,
      "outs": 9094,
      "Ġmetabolic": 9095,
      "BB": 9096,
      "sen": 9097,
      "Ġfan": 9098,
      "teen": 9099,
      "ĠChicago": 9100,
      "Ġcritic": 9101,
      "Ġlie": 9102,
      "ĠWARRANT": 9103,
      "Ġrobust": 9104,
      "Ġpray": 9105,
      "Ġ250": 9106,
      "Ġyellow": 9107,
      "Ġmanage": 9108,
      "Ġsurve": 9109,
      "Ġconstitutional": 9110,
      "ĠHand": 9111,
      "ĠBig": 9112,
      "Ġcounty": 9113,
      "atient": 9114,
      "scr": 9115,
      "ĠReturn": 9116,
      "Mon": 9117,
      "uset": 9118,
      "Ġ$\\{": 9119,
      "Ġtranslation": 9120,
      "Ġcytok": 9121,
      "People": 9122,
      "Ġaid": 9123,
      "ĠTor": 9124,
      "Ġdecay": 9125,
      "Ġcards": 9126,
      "Ġfemales": 9127,
      "Ġdisclosed": 9128,
      "Ġobserve": 9129,
      "Ġkne": 9130,
      "Ġcalculate": 9131,
      "Ġcopyright": 9132,
      "ĠInstead": 9133,
      "Ġhousing": 9134,
      "zer": 9135,
      "zero": 9136,
      "Ġahead": 9137,
      "Ġeat": 9138,
      "ĠGre": 9139,
      "clip": 9140,
      "Ġgirls": 9141,
      "Ġbrowser": 9142,
      "Ġbil": 9143,
      "Ġhol": 9144,
      "Ġdoctor": 9145,
      "Ġreliable": 9146,
      "Ġ74": 9147,
      "Ġfinds": 9148,
      "ICE": 9149,
      "Update": 9150,
      "Ġshock": 9151,
      "akers": 9152,
      "020": 9153,
      "ĠTem": 9154,
      "Ġacadem": 9155,
      "Ġfacility": 9156,
      "={": 9157,
      "Ġlens": 9158,
      "umes": 9159,
      "athered": 9160,
      "ĠFrancis": 9161,
      "ĠName": 9162,
      "Ġ1993": 9163,
      "Ġexplanation": 9164,
      "}[": 9165,
      "Ġinduce": 9166,
      "antly": 9167,
      "Ġris": 9168,
      "Ġchief": 9169,
      "Ġviolence": 9170,
      "Ġmask": 9171,
      "Ġabsorb": 9172,
      "osh": 9173,
      "close": 9174,
      "Ġworse": 9175,
      "Ġtransferred": 9176,
      "haust": 9177,
      "ULT": 9178,
      "AK": 9179,
      "Max": 9180,
      "Ġprices": 9181,
      "Ġreform": 9182,
      "olt": 9183,
      "015": 9184,
      "Ġdistributions": 9185,
      "rames": 9186,
      "Ġcompliance": 9187,
      "Ġgauge": 9188,
      "Ġpresentation": 9189,
      "options": 9190,
      "Ġrepresenting": 9191,
      "ĠAmong": 9192,
      "ĠDoes": 9193,
      "piratory": 9194,
      "HR": 9195,
      "bel": 9196,
      "Ġplug": 9197,
      "itrogen": 9198,
      "ogeneous": 9199,
      "Ġcitizens": 9200,
      "DU": 9201,
      "Last": 9202,
      "life": 9203,
      "Ġcoding": 9204,
      "ĠTIM": 9205,
      "ĠRock": 9206,
      "255": 9207,
      "ĠServices": 9208,
      "ĠIR": 9209,
      "Ġdestroy": 9210,
      "Ġupdated": 9211,
      "uke": 9212,
      "ĠÑģ": 9213,
      "aded": 9214,
      "Ġ77": 9215,
      "---------------": 9216,
      "Ġdataset": 9217,
      "Ġgradient": 9218,
      "ĠCre": 9219,
      "Ġ97": 9220,
      "Ġtopic": 9221,
      "Ġapparently": 9222,
      "ĠCr": 9223,
      "ums": 9224,
      "ĠMax": 9225,
      "ĠĠĠĠĠĠĠĠĠĠĠĠĠĠĠĠĠĠĠĠĠĠĠĠĠĠĠĠĠĠĠĠĠĠĠĠĠĠĠĠĠĠ": 9226,
      "Also": 9227,
      "cb": 9228,
      "Ð²": 9229,
      "Ġcities": 9230,
      "Ġcomparing": 9231,
      "ificate": 9232,
      "Ġlose": 9233,
      "ĠWood": 9234,
      "Ġinsulin": 9235,
      "Ġprogn": 9236,
      "Ġconsequences": 9237,
      "Ġbirths": 9238,
      "Ġcarcinoma": 9239,
      "mitting": 9240,
      "Ġstick": 9241,
      "ĠExp": 9242,
      "WH": 9243,
      "Ġbars": 9244,
      "ĠBest": 9245,
      "erves": 9246,
      "Ġdivision": 9247,
      "Ġcolumns": 9248,
      "ao": 9249,
      "ĠĠĠĠĠĠĠĠĠĠĠĠĠĠĠĠĠĠĠĠĠĠĠĠĠĠĠĠĠĠĠĠĠĠĠĠĠĠ": 9250,
      "connect": 9251,
      "Ġmomentum": 9252,
      "Ġcopies": 9253,
      "rical": 9254,
      "Ġinqu": 9255,
      "Ġeuro": 9256,
      "Ġsuc": 9257,
      "Ġturns": 9258,
      "Ġpursuant": 9259,
      "Load": 9260,
      "[\"": 9261,
      "ynt": 9262,
      "Ġ..": 9263,
      "ctx": 9264,
      "ĠMount": 9265,
      "Ġchromos": 9266,
      "ĠAv": 9267,
      "Ġnewsp": 9268,
      "Control": 9269,
      "Ġlaboratory": 9270,
      "Ġepisode": 9271,
      "Ġwavelength": 9272,
      "itudes": 9273,
      "Ġnamely": 9274,
      "ĠJesus": 9275,
      "Label": 9276,
      "ircraft": 9277,
      "Ġresponsibility": 9278,
      "ictionary": 9279,
      "Ġefficacy": 9280,
      "ÂłÂłÂłÂłÂłÂłÂłÂł": 9281,
      "Ġsymbol": 9282,
      "iology": 9283,
      "Ġtun": 9284,
      "ĠIr": 9285,
      "ĠWhere": 9286,
      "Ġ61": 9287,
      "Ġposit": 9288,
      "Ġclassified": 9289,
      "ABILITY": 9290,
      "Ġrequested": 9291,
      "Ġnormally": 9292,
      "Current": 9293,
      "ĠĠĠĠĠĠĠĠĠĠĠĠĠĠĠĠĠĠĠĠĠĠĠĠĠĠĠĠĠĠĠĠĠĠĠĠĠĠĠĠĠ": 9294,
      "common": 9295,
      "Ġschedul": 9296,
      "Ġintroduce": 9297,
      "Î¬": 9298,
      "ados": 9299,
      "ĠMonday": 9300,
      "pert": 9301,
      "ĠĠĠĠĠĠĠĠĠĠĠĠĠĠĠĠĠĠĠĠĠĠĠĠĠĠĠĠĠĠĠĠĠĠĠĠ": 9302,
      "Ġposts": 9303,
      "Ġvillage": 9304,
      "Ãĥ": 9305,
      "okes": 9306,
      "Ġinfections": 9307,
      "NN": 9308,
      "nn": 9309,
      "ĠPan": 9310,
      "Ġdust": 9311,
      "Ġhorm": 9312,
      "uma": 9313,
      "Ġsenior": 9314,
      "ZE": 9315,
      "Ġlattice": 9316,
      "ĠNE": 9317,
      "Ġherself": 9318,
      "ĠResults": 9319,
      "Ġ-\\": 9320,
      "Ġinternet": 9321,
      "Ġreader": 9322,
      "ĠClub": 9323,
      "Ġsampling": 9324,
      "=(": 9325,
      "Ġcompat": 9326,
      "sche": 9327,
      "cr": 9328,
      "phe": 9329,
      "Ġbaby": 9330,
      "cells": 9331,
      "foot": 9332,
      "gent": 9333,
      "yer": 9334,
      "inating": 9335,
      "report": 9336,
      "Ġ(%)": 9337,
      "ĠHome": 9338,
      "ĠRoad": 9339,
      "Ġ78": 9340,
      "Ġreferences": 9341,
      "ĠMean": 9342,
      "vin": 9343,
      "Ġlived": 9344,
      "),\\": 9345,
      "negative": 9346,
      "'$": 9347,
      "Ġvit": 9348,
      "Ġ1991": 9349,
      "Ġmagnet": 9350,
      "Just": 9351,
      "nm": 9352,
      "sv": 9353,
      "Ġrib": 9354,
      "ĠWT": 9355,
      "ĠPlay": 9356,
      "Ġrows": 9357,
      "Ġsitting": 9358,
      "ifer": 9359,
      "Ġatoms": 9360,
      "ango": 9361,
      "opping": 9362,
      "Ġpieces": 9363,
      "Ġinvolvement": 9364,
      "Ġpel": 9365,
      "ĠSun": 9366,
      "}}}$": 9367,
      "Ġapplies": 9368,
      "Ġmassive": 9369,
      "Ġmission": 9370,
[...]
